<unk>	0
<s>	0
</s>	0
▁	-2.42534
,	-3.44394
.	-3.61842
а	-3.75385
▁и	-3.94548
▁у	-4.10947
▁је	-4.23259
е	-4.44532
▁да	-4.52367
о	-4.52564
и	-4.53917
у	-4.6598
▁на	-4.71674
▁се	-4.7958
1	-4.8452
▁за	-4.87629
м	-4.94015
0	-4.98025
2	-5.20487
▁су	-5.2732
ли	-5.32426
ти	-5.40491
▁од	-5.42502
▁са	-5.48054
на	-5.49055
ма	-5.51795
:	-5.5801
не	-5.59166
▁по	-5.60232
ла	-5.62631
ни	-5.6472
▁не	-5.70827
▁(	-5.74732
ом	-5.78997
-	-5.7954
▁из	-5.82249
▁„	-5.83291
те	-5.83655
▁о	-5.88658
г	-5.922
с	-5.95426
)	-5.97219
▁који	-5.98123
9	-5.99147
▁У	-6.0383
ју	-6.06663
3	-6.07137
▁до	-6.07792
ња	-6.09403
ње	-6.0998
ј	-6.11452
ка	-6.12559
5	-6.12904
х	-6.16564
8	-6.16794
4	-6.17946
т	-6.18444
но	-6.18581
ле	-6.19648
мо	-6.20719
их	-6.25851
▁као	-6.29525
ну	-6.3127
ло	-6.31925
“	-6.32346
н	-6.36042
к	-6.36245
7	-6.36296
▁то	-6.3823
6	-6.38487
▁–	-6.40696
ог	-6.41922
▁што	-6.44811
▁пре	-6.45403
та	-6.45618
▁ће	-6.4659
им	-6.47667
ш	-6.4825
ра	-6.48356
да	-6.51741
л	-6.51888
▁би	-6.52195
р	-6.52688
ва	-6.54067
▁-	-6.54409
има	-6.55801
▁с	-6.57695
▁године	-6.5836
је	-6.60441
ци	-6.65072
▁С	-6.68074
▁И	-6.70473
д	-6.70521
ко	-6.73706
▁све	-6.74489
...	-6.75446
▁није	-6.75768
п	-6.77001
▁које	-6.78823
▁А	-6.79178
▁или	-6.79669
▁про	-6.84222
в	-6.84453
њу	-6.8486
ја	-6.85059
ви	-6.86195
?	-6.87121
з	-6.87157
че	-6.89391
▁О	-6.91138
▁На	-6.93585
сти	-6.94206
▁али	-6.94985
ку	-6.95187
!	-6.95662
ног	-6.95686
них	-6.96047
▁само	-6.97405
▁при	-6.97574
ри	-6.98405
▁"	-6.98963
▁По	-6.9999
де	-7.00536
▁која	-7.00944
С	-7.01669
ди	-7.02607
ре	-7.03011
ке	-7.03179
▁сам	-7.05839
ве	-7.06045
ој	-7.07495
лу	-7.07707
ном	-7.08971
ће	-7.11426
чи	-7.11568
га	-7.12375
▁па	-7.13604
по	-7.13801
"	-7.14127
ан	-7.15
▁Србије	-7.15371
▁како	-7.15659
▁ко	-7.16524
▁ми	-7.1664
то	-7.16695
▁под	-7.16984
ме	-7.17192
це	-7.17611
▁више	-7.17782
за	-7.18157
А	-7.18445
са	-7.18882
ним	-7.19248
▁бити	-7.19261
ста	-7.22052
па	-7.22198
ова	-7.23664
ски	-7.25448
ца	-7.25509
ц	-7.2554
▁може	-7.26505
;	-7.27205
/	-7.27726
▁већ	-7.2809
ска	-7.32819
ске	-7.33999
се	-7.34925
▁био	-7.35065
б	-7.35405
ба	-7.35956
▁За	-7.36657
ше	-7.37261
”	-7.38013
▁било	-7.39152
ту	-7.39257
бе	-7.40295
же	-7.41327
ћи	-7.42356
▁смо	-7.43323
▁га	-7.44585
вер	-7.45372
Б	-7.4545
зи	-7.45631
Д	-7.45651
▁Не	-7.45663
▁јер	-7.46066
О	-7.4844
“,	-7.49428
▁када	-7.4967
ч	-7.49829
ља	-7.5014
ру	-7.50338
ду	-7.50409
ча	-7.50562
ови	-7.51469
ст	-7.51506
К	-7.52055
▁година	-7.52115
▁ре	-7.52946
▁без	-7.53928
­	-7.54254
ки	-7.54618
▁још	-7.54644
▁Да	-7.54746
▁тако	-7.55174
ша	-7.56501
ж	-7.56966
И	-7.57873
▁те	-7.57908
би	-7.59163
си	-7.60037
ље	-7.60766
У	-7.60808
Т	-7.61546
ског	-7.62726
во	-7.63119
).	-7.6449
▁К	-7.66005
ро	-7.66049
▁Е	-7.66485
▁му	-7.66705
М	-7.67121
до	-7.67503
▁своје	-7.67876
▁треба	-7.68041
П	-7.68047
▁рад	-7.70137
▁_	-7.7072
▁он	-7.709
▁пред	-7.71389
▁има	-7.71582
),	-7.71615
▁Па	-7.71627
▁раз	-7.71766
ије	-7.72749
▁Ко	-7.73399
▁због	-7.7341
▁То	-7.74226
▁уз	-7.74542
▁против	-7.74631
▁Са	-7.76741
вање	-7.76844
ћа	-7.77049
ред	-7.77677
▁ка	-7.77971
ши	-7.7839
су	-7.78784
▁Б	-7.79357
ар	-7.80502
▁дана	-7.82659
]	-7.8279
▁нас	-7.82838
Е	-7.82894
ско	-7.82968
ком	-7.83106
ђе	-7.83292
ове	-7.83714
▁пут	-7.84164
▁број	-7.844
▁Ми	-7.84438
гу	-7.84939
▁ради	-7.85197
▁данас	-7.85464
▁код	-7.85883
▁људи	-7.86079
▁време	-7.86261
▁ја	-7.86329
В	-7.86388
го	-7.86408
ску	-7.86481
Ц	-7.86725
ми	-7.86998
Р	-7.8713
▁нема	-7.87132
ор	-7.87199
▁могу	-7.87272
▁П	-7.88124
▁један	-7.88174
▁била	-7.88564
пе	-7.8872
▁ли	-7.88774
▁нај	-7.8909
жи	-7.89242
▁око	-7.89899
ној	-7.90198
▁рекао	-7.90619
▁начин	-7.90717
Н	-7.90804
Г	-7.90874
ује	-7.91027
▁шта	-7.91381
▁према	-7.91647
њи	-7.91669
ник	-7.92127
▁ако	-7.92519
▁Ма	-7.93808
▁него	-7.93817
▁До	-7.9484
Л	-7.95637
ији	-7.95651
y	-7.95974
“.	-7.96104
▁Србији	-7.962
▁нису	-7.9623
▁об	-7.96982
▁свој	-7.97038
▁Ка	-7.97361
није	-7.9767
▁де	-7.97888
ћу	-7.98025
ници	-7.98275
▁ту	-7.98492
▁народ	-7.98867
ском	-7.99184
▁тога	-7.99346
ин	-7.9957
ем	-7.99713
ал	-8.00115
шта	-8.00474
ић	-8.00647
▁ни	-8.01236
▁где	-8.01422
пу	-8.02631
овић	-8.02639
▁док	-8.03092
▁Г	-8.03914
ф	-8.03983
ство	-8.044
ак	-8.04455
јући	-8.0497
▁зна	-8.05051
▁буде	-8.05244
тра	-8.05302
▁Републике	-8.05607
цима	-8.05955
▁Де	-8.0659
бра	-8.06606
ге	-8.06676
ције	-8.06719
▁тај	-8.06788
ија	-8.06848
пис	-8.07487
З	-8.07897
ских	-8.07965
▁они	-8.07981
ван	-8.0885
ост	-8.09009
▁Пре	-8.09097
▁неће	-8.09217
ница	-8.09398
▁М	-8.09505
Ј	-8.09592
▁ове	-8.10004
▁Из	-8.10033
▁права	-8.10294
ио	-8.10331
▁мора	-8.10559
нд	-8.10838
▁Ја	-8.11038
▁ме	-8.11198
▁сви	-8.11268
▁коју	-8.11287
▁сада	-8.11337
ства	-8.11341
▁између	-8.11782
▁овог	-8.12063
▁Д	-8.12192
▁три	-8.12587
вања	-8.12956
прав	-8.13712
▁др	-8.13728
▁нам	-8.13853
▁преко	-8.14085
ха	-8.14204
▁“	-8.14274
ковић	-8.15165
▁Од	-8.15384
▁живот	-8.15993
▁Србија	-8.16083
ште	-8.16443
▁сте	-8.16644
▁Београд	-8.16704
вр	-8.17057
став	-8.17108
▁стране	-8.17321
тер	-8.1735
му	-8.17707
▁Ре	-8.18108
▁Он	-8.18466
▁свет	-8.18784
▁томе	-8.19252
▁кад	-8.1953
▁два	-8.19566
▁Те	-8.1982
ција	-8.21032
Ч	-8.2133
▁Ц	-8.21373
▁после	-8.21713
ен	-8.21757
▁били	-8.21787
▁Ба	-8.21917
▁Српске	-8.22485
ов	-8.22709
ника	-8.22896
▁кроз	-8.23038
▁којима	-8.23169
▁Ф	-8.23185
жа	-8.23237
цу	-8.23459
▁Ви	-8.23678
ице	-8.23884
пи	-8.24151
ћ	-8.24171
▁Про	-8.24227
▁град	-8.24261
▁ру	-8.24296
љ	-8.24321
ости	-8.24456
овима	-8.24505
или	-8.24574
бу	-8.24942
▁каже	-8.24948
▁При	-8.25043
▁—	-8.25084
зе	-8.26302
ност	-8.26359
ности	-8.26496
▁овај	-8.26995
Ф	-8.27487
вод	-8.27899
▁много	-8.28289
љу	-8.28353
Х	-8.28805
про	-8.28871
Ш	-8.29252
▁овом	-8.29803
њем	-8.30014
▁Београду	-8.30361
он	-8.3046
▁бр	-8.30596
▁си	-8.30733
бри	-8.31392
▁ово	-8.31518
ђа	-8.31771
▁над	-8.31825
▁вам	-8.32189
▁након	-8.32265
куп	-8.32275
чу	-8.32305
▁Т	-8.32376
мир	-8.32755
▁добро	-8.3317
▁својим	-8.33234
▁први	-8.33304
▁Та	-8.33603
▁З	-8.33879
ити	-8.34057
из	-8.34699
▁кон	-8.3479
▁ЗА	-8.34842
▁тим	-8.35846
ву	-8.36122
НА	-8.36358
▁право	-8.37619
ица	-8.37652
▁Ако	-8.37744
▁Ли	-8.38738
▁током	-8.39439
пре	-8.39711
▁део	-8.39814
▁САД	-8.40259
▁оп	-8.40642
▁оно	-8.40835
рије	-8.40926
▁Бо	-8.40944
▁свих	-8.41421
▁неколико	-8.415
том	-8.41966
▁своју	-8.4199
ама	-8.42023
стра	-8.42556
мен	-8.42742
љи	-8.42904
▁Ра	-8.43543
зна	-8.4368
▁/	-8.44174
▁друге	-8.44218
▁рат	-8.44823
▁Ме	-8.44955
▁онда	-8.45076
кла	-8.45229
▁игра	-8.45381
▁налази	-8.4542
сто	-8.45464
ској	-8.46158
▁имају	-8.46356
нов	-8.46682
▁наше	-8.46761
▁ви	-8.47371
▁српски	-8.47711
▁име	-8.48001
дан	-8.48225
▁БиХ	-8.483
ер	-8.48398
▁Али	-8.48523
спе	-8.48611
чка	-8.48678
▁члан	-8.4884
ги	-8.48843
нице	-8.48949
бо	-8.48987
▁нешто	-8.49048
НИ	-8.49055
кре	-8.49256
▁рас	-8.49439
чки	-8.49468
",	-8.49569
ила	-8.49989
тар	-8.50367
▁којој	-8.50678
ји	-8.50795
▁председник	-8.50845
ују	-8.51262
▁мало	-8.51293
▁В	-8.51477
њ	-8.5161
јте	-8.51739
тро	-8.51873
КА	-8.519
▁две	-8.52281
▁Како	-8.52467
▁говори	-8.53065
▁међу	-8.53391
▁ЕУ	-8.53829
град	-8.54089
ман	-8.54176
▁њих	-8.54255
стал	-8.54506
▁НА	-8.54533
w	-8.54552
▁дан	-8.54955
▁области	-8.55241
▁други	-8.55283
нији	-8.55583
чан	-8.55587
ков	-8.5561
вој	-8.55628
▁от	-8.55634
▁увек	-8.55949
▁једна	-8.5672
▁даље	-8.56996
мет	-8.57253
▁она	-8.57379
▁веома	-8.57468
ступ	-8.57475
бор	-8.57499
мер	-8.57669
▁помоћ	-8.5791
▁пута	-8.58166
▁Х	-8.58281
▁з	-8.58376
▁исто	-8.58492
лик	-8.58599
МА	-8.58672
▁Све	-8.58884
фе	-8.59193
ским	-8.59399
▁програм	-8.59512
сте	-8.59719
▁можете	-8.59953
▁такође	-8.5996
▁та	-8.6002
▁колико	-8.60083
рија	-8.60093
▁Вучић	-8.60485
”,	-8.60557
ина	-8.6059
тор	-8.60787
стој	-8.60896
▁вас	-8.60989
▁односно	-8.61076
▁свим	-8.61465
▁води	-8.61612
▁ди	-8.61729
при	-8.6176
▁користи	-8.62197
тур	-8.62229
▁пла	-8.62325
ЛА	-8.6239
ација	-8.62475
▁Ха	-8.62643
▁постоји	-8.62703
▁Ле	-8.63102
▁чак	-8.63135
лог	-8.63549
▁Ру	-8.63633
▁општине	-8.63714
ел	-8.63843
РЕ	-8.63926
▁Ин	-8.63952
РА	-8.64038
▁овде	-8.64135
▁човек	-8.64787
▁их	-8.64841
жу	-8.64866
▁земље	-8.65036
▁власти	-8.65142
ију	-8.6522
вши	-8.65347
▁Господ	-8.65509
хо	-8.65821
▁народа	-8.66479
▁пет	-8.66522
▁рата	-8.66728
ос	-8.66861
▁коме	-8.66863
▁школе	-8.66973
▁избор	-8.67072
фи	-8.67317
чке	-8.67423
нија	-8.67627
▁Је	-8.67761
▁нови	-8.68057
%	-8.68178
▁једном	-8.68302
▁цркве	-8.68471
ите	-8.68613
ац	-8.68709
▁НАТО	-8.68811
▁других	-8.68851
▁ин	-8.68894
ран	-8.68967
▁Ш	-8.69074
▁живота	-8.69287
▁место	-8.69649
вре	-8.69725
▁том	-8.69907
▁одговор	-8.70278
ент	-8.70571
нски	-8.7077
рт	-8.70847
▁града	-8.70987
▁питање	-8.71004
нг	-8.71031
▁Рад	-8.71324
▁Мо	-8.71369
слав	-8.71381
▁Бе	-8.71515
▁свог	-8.71631
род	-8.71798
▁сто	-8.71828
▁државе	-8.72194
▁ПО	-8.72349
▁план	-8.72427
▁Русије	-8.7272
▁Би	-8.72763
▁времена	-8.72826
▁развој	-8.72883
▁Ла	-8.72898
▁сматра	-8.72907
кри	-8.73013
▁Срба	-8.73052
▁Пе	-8.7309
так	-8.73147
дер	-8.733
▁Када	-8.736
цом	-8.73679
лом	-8.73777
ур	-8.74221
вести	-8.74228
▁представља	-8.74316
▁пе	-8.74875
▁рада	-8.75123
од	-8.75319
▁Ди	-8.75345
▁цар	-8.75724
▁ништа	-8.76086
▁ствари	-8.76122
▁суд	-8.76638
вали	-8.7672
▁Ово	-8.76795
▁њен	-8.76829
изам	-8.77027
ВА	-8.77133
▁свега	-8.77334
▁српске	-8.77417
▁света	-8.775
▁Срби	-8.77602
КО	-8.77698
▁годину	-8.77884
▁прави	-8.77925
НЕ	-8.78009
▁свом	-8.78061
▁биће	-8.78099
ђу	-8.78104
хе	-8.7832
▁спорт	-8.78515
зу	-8.78649
бер	-8.78706
.[	-8.78719
▁пример	-8.78729
вар	-8.78739
кра	-8.78806
▁неко	-8.78862
▁свету	-8.79108
хи	-8.79111
▁сме	-8.79139
мин	-8.79222
кар	-8.79315
▁проблем	-8.79468
▁држава	-8.79532
држ	-8.7979
▁једног	-8.79854
тан	-8.80161
▁велики	-8.80271
▁речи	-8.80291
▁тр	-8.80402
шти	-8.80414
(	-8.80426
▁наш	-8.80731
▁зато	-8.80856
ђи	-8.80922
пер	-8.81161
уз	-8.81167
▁систем	-8.81249
▁филм	-8.81297
▁Кр	-8.81333
▁Бог	-8.81432
лија	-8.81491
инг	-8.81512
▁Се	-8.81515
▁Шта	-8.81767
цију	-8.82006
ици	-8.82064
▁културе	-8.82805
▁Светог	-8.82807
▁послова	-8.83055
шко	-8.83294
▁Ова	-8.84009
▁неки	-8.84092
поште	-8.84131
ус	-8.84172
вид	-8.84191
▁Бу	-8.84429
ТЕ	-8.84589
▁српског	-8.84704
сна	-8.84948
▁језик	-8.84964
▁оквиру	-8.84969
▁посебно	-8.85073
бој	-8.85135
▁Ро	-8.85229
ству	-8.85254
▁чини	-8.85378
ЛИ	-8.85427
▁Га	-8.85497
▁себе	-8.85702
год	-8.86158
шић	-8.86352
▁другим	-8.86372
▁Ар	-8.86553
▁министар	-8.86604
ху	-8.86772
▁ову	-8.87424
▁њега	-8.87701
вању	-8.87844
▁фа	-8.87914
исти	-8.88031
бли	-8.88543
▁Си	-8.88653
▁Ти	-8.8913
чког	-8.89236
ева	-8.89252
▁поред	-8.89306
чић	-8.89404
▁исп	-8.89424
▁дела	-8.89453
▁оне	-8.8966
▁коментар	-8.90012
▁Пред	-8.90277
кс	-8.90441
вољ	-8.90473
нске	-8.90489
▁ваш	-8.90532
иста	-8.90548
▁воде	-8.90594
▁©	-8.90718
говор	-8.90899
▁бол	-8.91093
кли	-8.91255
▁тада	-8.9129
твор	-8.91339
▁[	-8.91377
’	-8.91411
чно	-8.91553
▁требало	-8.9175
▁Косова	-8.91872
▁века	-8.9222
▁нека	-8.92329
чар	-8.92643
▁Н	-8.9265
ев	-8.92996
ВЕ	-8.93156
▁школа	-8.93187
ат	-8.9342
узе	-8.93431
вели	-8.9344
ира	-8.93517
изма	-8.9354
▁син	-8.93728
раз	-8.9382
пут	-8.93821
▁Ве	-8.93895
".	-8.93908
ис	-8.94026
▁Хо	-8.94036
▁прича	-8.94468
▁основу	-8.94732
врат	-8.94849
ације	-8.94859
НО	-8.95064
вен	-8.9512
”.	-8.95224
гледа	-8.95247
▁пријатељ	-8.95318
лије	-8.95386
▁земљи	-8.95544
▁бо	-8.95948
▁Према	-8.96062
рад	-8.9633
▁значи	-8.96437
▁Нови	-8.96485
ТА	-8.96581
▁реч	-8.96585
МО	-8.9666
▁буду	-8.96902
▁мој	-8.96924
'	-8.96955
▁часова	-8.97298
▁питања	-8.97333
▁призна	-8.97434
▁пра	-8.97458
▁Ни	-8.9756
стан	-8.97629
рс	-8.97672
▁милиона	-8.97727
нт	-8.97748
њима	-8.98027
гре	-8.98111
става	-8.98189
▁Међутим	-8.98462
мери	-8.98481
▁простор	-8.98639
▁гледа	-8.98783
▁активности	-8.98797
▁места	-8.98801
▁одржан	-8.98907
▁Русија	-8.99014
▁случају	-8.99105
дар	-8.99425
бан	-8.99441
▁заједно	-8.99464
▁Свети	-8.99488
▁преда	-8.99788
фо	-8.99927
▁крају	-8.9993
▁чита	-9.0009
▁једно	-9.00223
▁живе	-9.0023
лица	-9.00289
▁види	-9.00306
▁њима	-9.00536
фер	-9.00624
сни	-9.0064
сан	-9.00722
▁поново	-9.00762
ење	-9.00782
ДЕ	-9.00906
▁Као	-9.00975
▁Ста	-9.01003
▁нико	-9.01402
▁врати	-9.0145
▁закон	-9.01509
▁Гр	-9.01785
тера	-9.01852
▁Нај	-9.01905
▁сва	-9.01937
▁Александар	-9.01956
▁пар	-9.02138
▁тражи	-9.02213
чна	-9.02243
▁пот	-9.02431
▁деце	-9.02614
бија	-9.02657
сно	-9.02944
ИН	-9.02977
вао	-9.03018
▁познат	-9.03061
▁интерес	-9.03184
▁Србију	-9.03259
Ж	-9.03289
ров	-9.03368
ген	-9.03565
▁пошто	-9.03621
▁извор	-9.03733
▁Ва	-9.03821
плат	-9.0407
▁сваки	-9.04076
▁Под	-9.04077
▁Бр	-9.04079
▁Београда	-9.04138
▁живи	-9.04156
ине	-9.04298
▁Ал	-9.04482
дио	-9.04572
ВИ	-9.04781
шао	-9.04796
лац	-9.04866
▁врло	-9.04911
▁род	-9.04967
▁тог	-9.05216
▁Мар	-9.05344
▁потпуно	-9.05504
▁текст	-9.05618
ацију	-9.05629
▁значај	-9.05739
▁Р	-9.05832
▁Нема	-9.05848
▁приступ	-9.05903
▁кри	-9.0594
▁ових	-9.05962
▁...	-9.06101
ТИ	-9.0621
▁показа	-9.06343
нс	-9.06354
ијом	-9.06469
чку	-9.06584
▁изда	-9.06603
пр	-9.0661
▁књига	-9.0676
▁Његов	-9.06822
▁циљ	-9.06863
мена	-9.06893
▁Ки	-9.06942
МЕ	-9.06976
▁Није	-9.07022
▁већи	-9.07193
ијски	-9.07322
рас	-9.07458
▁скуп	-9.07795
▁четири	-9.07957
▁језику	-9.08004
▁мир	-9.08075
ок	-9.08328
гор	-9.08635
▁нашег	-9.08642
▁Но	-9.08736
тре	-9.08783
▁боље	-9.08935
▁нове	-9.09012
▁Запад	-9.09111
▁желе	-9.09157
▁резултат	-9.09267
АН	-9.09276
ирање	-9.0928
дије	-9.09736
▁кр	-9.09748
▁имао	-9.09831
вају	-9.09978
▁Ј	-9.10109
▁документ	-9.10171
кова	-9.10183
љив	-9.10187
▁Овај	-9.10229
▁овој	-9.10245
По	-9.10272
▁болести	-9.10391
▁професор	-9.10415
▁Тако	-9.10532
▁његов	-9.10568
ср	-9.1068
[	-9.10765
▁председника	-9.10935
гла	-9.11066
вати	-9.11067
фа	-9.11085
▁посла	-9.11093
▁тешко	-9.11132
▁бисте	-9.11214
»	-9.11216
чни	-9.11275
ход	-9.11312
▁ћемо	-9.1147
▁баш	-9.11471
▁програма	-9.11546
▁књиге	-9.11613
▁непо	-9.11636
глас	-9.11657
▁могуће	-9.11701
цх	-9.11782
▁Косово	-9.12045
▁често	-9.12045
▁вези	-9.12136
три	-9.1224
▁Након	-9.12249
▁Ча	-9.12471
мор	-9.12513
▁тек	-9.12692
▁мање	-9.12704
РИ	-9.12829
▁со	-9.12919
▁себи	-9.1295
▁грађана	-9.13088
Ћ	-9.13193
тица	-9.13704
▁локал	-9.13715
▁Сва	-9.13915
▁можда	-9.13987
▁влада	-9.14057
▁W	-9.14158
▁одређен	-9.14185
▁власт	-9.14259
▁злочин	-9.14311
▁Су	-9.14383
лаже	-9.14429
▁мисли	-9.14506
пор	-9.14619
стар	-9.14642
▁Му	-9.14707
▁РС	-9.14823
▁никада	-9.14886
▁неке	-9.14947
ДИ	-9.15045
дом	-9.15084
лек	-9.15085
▁складу	-9.15195
▁стр	-9.15199
▁својих	-9.15316
новић	-9.15454
▁клуб	-9.15566
нос	-9.15626
зор	-9.15701
иран	-9.15775
На	-9.15845
▁јој	-9.15952
▁потребно	-9.15969
▁лица	-9.1617
▁носи	-9.1638
▁генерал	-9.16399
мент	-9.16522
форм	-9.16572
чење	-9.16613
▁«	-9.16627
▁раду	-9.16769
▁уради	-9.16872
▁јавно	-9.16909
▁Град	-9.16926
▁Цркве	-9.17099
▁аутор	-9.17325
▁жели	-9.17376
тка	-9.17379
еви	-9.17398
једи	-9.17452
▁могао	-9.17454
▁јесте	-9.1748
▁крај	-9.1748
▁наводи	-9.17482
▁тамо	-9.17539
мени	-9.17545
▁касније	-9.17624
▁савез	-9.17704
ницу	-9.18147
тељ	-9.18161
▁Ку	-9.1825
тал	-9.18294
▁Има	-9.18296
цији	-9.18314
▁језика	-9.18383
тон	-9.18558
чне	-9.187
▁информација	-9.18705
▁система	-9.18758
▁производ	-9.18769
▁Го	-9.1877
▁дуго	-9.18787
▁приликом	-9.18938
ика	-9.18958
▁случај	-9.19011
ЈЕ	-9.19034
▁утицај	-9.19041
▁Ло	-9.19092
▁управо	-9.1919
мит	-9.19229
мера	-9.19343
атор	-9.19348
шки	-9.19501
▁Ју	-9.19504
ише	-9.19534
▁Ту	-9.19573
▁дело	-9.19842
▁поводом	-9.20033
▁Др	-9.20117
кон	-9.20186
шу	-9.20224
▁жена	-9.20267
▁јуна	-9.20276
рез	-9.20284
кључ	-9.20303
▁Ду	-9.20303
ква	-9.2034
▁бу	-9.20385
вом	-9.20441
▁поста	-9.205
иш	-9.20548
▁центра	-9.20611
▁месту	-9.20704
ставља	-9.20871
▁настави	-9.20878
▁Милан	-9.20989
гар	-9.20997
дје	-9.21081
дру	-9.21115
дина	-9.21218
▁мај	-9.21523
стро	-9.21652
ет	-9.21751
сје	-9.21925
▁дуж	-9.21972
▁страна	-9.22038
▁ис	-9.22044
вет	-9.22056
▁помоћи	-9.22107
▁Јер	-9.22132
зо	-9.22151
▁напад	-9.22169
▁краја	-9.22326
ег	-9.22382
▁После	-9.22437
▁својој	-9.22642
▁Министарство	-9.22656
бав	-9.22721
▁час	-9.22744
ик	-9.22914
▁Сви	-9.23038
▁имали	-9.23066
▁толико	-9.23077
▁>	-9.23107
▁бар	-9.23132
цк	-9.23172
▁оба	-9.2331
▁изјавио	-9.23341
▁СА	-9.2343
врш	-9.23445
▁лист	-9.23616
итељ	-9.23624
џ	-9.23728
▁хришћан	-9.23896
▁отворен	-9.23953
▁једну	-9.24072
▁директор	-9.24127
▁иде	-9.24142
▁процес	-9.24154
ром	-9.24212
▁Косову	-9.24239
▁направи	-9.2437
▁саобраћај	-9.24385
▁шест	-9.24446
▁Че	-9.24491
▁дуг	-9.24895
ДА	-9.25009
▁службе	-9.25078
слу	-9.25281
▁путем	-9.25376
▁став	-9.25408
▁бих	-9.25623
овање	-9.25629
▁сред	-9.25745
ЛО	-9.25795
зон	-9.25904
▁друго	-9.25961
лов	-9.26042
ден	-9.26071
ВО	-9.26106
▁јасно	-9.26113
струк	-9.26135
лет	-9.26199
▁ново	-9.26225
оп	-9.26236
▁Вас	-9.26344
▁брат	-9.26404
ЛЕ	-9.26447
▁Такође	-9.26507
крет	-9.26507
слов	-9.26598
▁њему	-9.26654
▁центар	-9.26688
▁којим	-9.26691
▁видео	-9.26708
вла	-9.26876
▁овим	-9.26881
▁премијер	-9.2689
▁група	-9.26941
▁пројекта	-9.26951
▁захтева	-9.26956
▁организација	-9.2699
▁периоду	-9.27003
једни	-9.27015
▁посети	-9.27059
▁одмах	-9.27154
▁Об	-9.2722
▁пи	-9.27282
▁год	-9.27349
лан	-9.27481
годишњи	-9.2753
▁делу	-9.2757
▁новинар	-9.27579
▁уста	-9.2767
ћемо	-9.277
глед	-9.27712
итет	-9.27894
лазак	-9.27992
дија	-9.28056
▁пара	-9.28086
▁највише	-9.28104
нова	-9.28161
▁анти	-9.28195
▁довољно	-9.28242
▁ученика	-9.28345
▁долази	-9.28582
▁пост	-9.28584
веза	-9.28655
вјер	-9.28657
▁закона	-9.28718
тр	-9.28852
љива	-9.28917
рен	-9.28994
▁очи	-9.28999
БА	-9.2921
нског	-9.29299
мета	-9.29364
▁Они	-9.2958
▁мас	-9.29625
▁заштиту	-9.29633
▁коментара	-9.29647
▁подршку	-9.29787
▁његове	-9.2981
▁прати	-9.29815
▁пише	-9.29841
чко	-9.3007
▁динара	-9.30087
РУ	-9.30147
▁спас	-9.30204
▁*	-9.30301
гори	-9.30307
стор	-9.30344
▁затим	-9.30395
▁Ж	-9.30505
бар	-9.30591
▁период	-9.30626
▁друга	-9.30849
шка	-9.30883
сту	-9.30905
кт	-9.30948
▁одсто	-9.30978
▁условима	-9.31093
вије	-9.31095
▁добија	-9.31185
▁материјал	-9.31197
Не	-9.31268
▁Ис	-9.31279
▁години	-9.31328
▁Во	-9.31339
АР	-9.31369
▁СЕ	-9.31377
чин	-9.31456
▁Ђ	-9.31573
▁нити	-9.31581
▁захтев	-9.31592
▁исти	-9.31616
▁чега	-9.31776
▁Владе	-9.31866
вија	-9.31883
▁лаж	-9.31898
след	-9.31922
▁сазна	-9.31932
пле	-9.31936
нска	-9.31953
▁ова	-9.32295
▁куће	-9.32347
▁детаљ	-9.32388
▁разговор	-9.32391
дне	-9.32562
▁планира	-9.32644
сија	-9.32659
▁иако	-9.32663
▁једне	-9.32667
вор	-9.32744
▁прво	-9.32805
▁којих	-9.3288
''	-9.32943
▁којем	-9.33043
пла	-9.33044
шће	-9.33058
кр	-9.33063
▁Српска	-9.3308
▁земаља	-9.33121
лице	-9.33168
▁ДО	-9.33276
▁телефон	-9.33419
▁групе	-9.33444
▁пружа	-9.33468
▁игре	-9.33473
▁кога	-9.33487
кле	-9.33624
▁конкурс	-9.33629
▁чији	-9.33701
▁чува	-9.33709
▁низ	-9.33846
▁главни	-9.33916
▁тро	-9.34079
▁вредности	-9.34141
љење	-9.34189
нк	-9.34213
▁Путин	-9.34282
▁зла	-9.34308
▁Зато	-9.34345
▁људима	-9.34346
чких	-9.34441
▁догађај	-9.34508
▁ипак	-9.3461
води	-9.34662
▁Владимир	-9.3475
▁ЈЕ	-9.34813
нце	-9.34883
▁налог	-9.34907
▁ниво	-9.3499
▁ДА	-9.35006
фор	-9.3501
▁информације	-9.3517
▁потом	-9.35188
▁тих	-9.35208
пс	-9.35346
ложи	-9.35382
▁факултет	-9.35487
једно	-9.35619
▁Драг	-9.3581
▁десет	-9.35931
▁зашто	-9.36074
▁ИЗ	-9.36126
▁комп	-9.36249
▁Фи	-9.3641
▁Бога	-9.36438
▁удар	-9.36466
лић	-9.36511
пун	-9.3655
▁уживо	-9.36583
▁ОД	-9.36656
ацији	-9.36661
▁имати	-9.36856
рати	-9.36885
▁проблема	-9.36926
▁сваког	-9.36938
ицу	-9.37008
дно	-9.37016
нац	-9.37128
мар	-9.37177
▁потпис	-9.37342
рав	-9.37447
ут	-9.37637
▁истакао	-9.37796
вис	-9.37804
▁Русији	-9.37886
КУ	-9.37911
ећи	-9.37926
исан	-9.37931
дин	-9.38011
ЊЕ	-9.38032
сед	-9.38129
воз	-9.38171
▁Лу	-9.38306
лар	-9.38432
тић	-9.38448
▁савет	-9.38459
▁задржана	-9.38466
▁постоје	-9.38503
▁сла	-9.38522
▁глас	-9.38726
▁току	-9.38749
▁изгледа	-9.38765
сне	-9.38776
▁одлучи	-9.38808
гр	-9.38934
▁следеће	-9.39002
▁виде	-9.39062
глав	-9.39084
чком	-9.39091
▁квалитет	-9.39127
▁осећа	-9.39207
▁снага	-9.39221
▁заштите	-9.39233
▁евра	-9.3926
▁Вој	-9.39281
▁питању	-9.39378
▁биле	-9.39419
▁можемо	-9.3944
▁новом	-9.395
▁Универзитет	-9.39601
▁српских	-9.39673
лне	-9.39684
▁података	-9.39699
пло	-9.39789
каз	-9.39801
као	-9.39855
▁Пи	-9.39857
▁ћу	-9.3996
ЦЕ	-9.39971
▁дете	-9.40064
▁Ниш	-9.40077
▁Вр	-9.4013
хр	-9.40195
▁оствари	-9.40228
▁чему	-9.40235
јем	-9.40399
▁седам	-9.40399
▁организације	-9.40431
▁Иван	-9.40446
кул	-9.40468
▁раст	-9.40615
▁одбране	-9.40635
▁мали	-9.40767
тно	-9.40777
веде	-9.40961
▁оних	-9.41125
оца	-9.41163
служ	-9.41197
▁Због	-9.41249
▁чека	-9.41366
▁децу	-9.41378
кој	-9.41392
стављен	-9.41422
ПА	-9.41495
СП	-9.41602
▁богат	-9.41612
▁ствар	-9.41619
нци	-9.41624
▁прода	-9.41681
сон	-9.41768
▁лако	-9.41887
▁руски	-9.41929
кси	-9.41944
▁ствара	-9.41966
▁остави	-9.41992
цо	-9.42108
▁раније	-9.42354
нка	-9.42358
▁сајт	-9.42368
▁септембра	-9.42371
гра	-9.42374
стре	-9.42386
▁најбоље	-9.424
зван	-9.4247
▁човека	-9.42499
Љ	-9.42563
▁дво	-9.42614
▁речима	-9.42621
европ	-9.4265
▁гласа	-9.4268
▁учини	-9.42684
▁старо	-9.42735
грађ	-9.42846
ТО	-9.42973
▁граду	-9.43047
▁Сада	-9.43202
▁интернет	-9.43235
сије	-9.43248
љен	-9.43253
▁нисам	-9.43317
лази	-9.43327
▁прва	-9.43389
▁НЕ	-9.4345
ск	-9.43495
▁Раз	-9.43518
▁најбољи	-9.43518
▁Ри	-9.43672
▁здрав	-9.4369
▁моћи	-9.437
▁Со	-9.43903
зија	-9.43911
Џ	-9.43918
▁његова	-9.44153
вала	-9.4417
▁Јован	-9.44238
кић	-9.44254
▁Она	-9.4429
▁Тре	-9.44388
▁развоја	-9.44432
оци	-9.44545
фин	-9.4457
▁облик	-9.44602
▁Министарства	-9.4464
▁октобра	-9.44891
▁Само	-9.44978
▁радова	-9.44988
▁извештај	-9.45011
▁позив	-9.45037
▁друштва	-9.45101
▁одговара	-9.45178
▁предмет	-9.45202
национал	-9.4522
▁члана	-9.45242
▁обавља	-9.45407
тен	-9.45429
▁наша	-9.45439
▁брзо	-9.45545
▁покуша	-9.45645
▁наших	-9.45746
▁послове	-9.45801
пусти	-9.45919
бил	-9.45936
▁Први	-9.45946
што	-9.46103
▁маја	-9.46118
▁Тур	-9.46151
▁смрти	-9.46177
▁бес	-9.46241
▁доказ	-9.463
▁Драган	-9.46308
▁могли	-9.46339
ђ	-9.4636
▁мене	-9.46495
▁скоро	-9.46508
стер	-9.4652
лин	-9.46705
▁дух	-9.4671
пт	-9.46823
▁Председник	-9.46862
▁говор	-9.46868
▁датум	-9.47022
▁читав	-9.47038
мисли	-9.47043
тив	-9.47091
▁Новом	-9.47182
▁страни	-9.47253
▁Европе	-9.47262
шту	-9.47265
јан	-9.47361
бит	-9.47416
▁метод	-9.47446
бре	-9.47613
тке	-9.47721
ину	-9.47744
▁демократ	-9.47826
▁актив	-9.4786
ановић	-9.479
▁твој	-9.4796
▁партнер	-9.48033
▁другог	-9.48172
спа	-9.48262
▁краљ	-9.48355
▁Кад	-9.48367
▁људе	-9.48369
▁Св	-9.48377
▁Ге	-9.4845
▁сукоб	-9.48491
▁Пу	-9.48595
▁велике	-9.4898
▁упозна	-9.48986
▁рату	-9.49078
више	-9.49084
▁пословн	-9.49138
▁жив	-9.49161
▁рече	-9.493
За	-9.49362
▁разуме	-9.49406
▁посао	-9.49417
▁заиста	-9.49425
▁раде	-9.49472
▁велика	-9.49544
веден	-9.49558
▁општина	-9.49605
▁могућности	-9.49619
Њ	-9.49683
ил	-9.49767
▁особа	-9.4998
страда	-9.5007
ктив	-9.50161
▁научни	-9.50172
чен	-9.50416
▁благо	-9.50494
мије	-9.50509
бац	-9.50516
▁дели	-9.50533
▁пун	-9.50593
▁манастир	-9.50686
ницима	-9.50718
▁Уз	-9.50718
▁Горе	-9.51026
рађен	-9.51035
зије	-9.51051
▁почиње	-9.51257
пушта	-9.51281
▁попут	-9.51283
хват	-9.51474
ића	-9.51562
јев	-9.51593
▁лепо	-9.51692
▁договор	-9.5179
▁Вук	-9.51876
▁положај	-9.51886
▁материјала	-9.51931
тврд	-9.51946
▁служи	-9.52066
вна	-9.52154
пад	-9.52184
▁слика	-9.52217
лер	-9.5225
▁борбе	-9.52352
▁Европи	-9.52403
▁Кар	-9.52493
▁дешава	-9.52534
▁уметности	-9.52538
▁Краљ	-9.52588
▁снаге	-9.52637
вина	-9.52667
▁Данас	-9.5272
▁сами	-9.52731
▁Сад	-9.52803
▁породице	-9.52954
спи	-9.53015
▁Цр	-9.53057
оби	-9.53087
чај	-9.53193
▁опет	-9.53233
▁сваком	-9.53256
њом	-9.533
▁уколико	-9.53345
задовољ	-9.53354
▁прими	-9.53384
▁деца	-9.53411
мп	-9.53417
▁Влада	-9.53449
▁политички	-9.53464
▁одржава	-9.53481
▁пита	-9.5357
др	-9.53573
▁четврт	-9.53605
нта	-9.53607
▁рекла	-9.53621
▁добио	-9.53677
чев	-9.53705
▁Више	-9.53749
▁разговара	-9.53806
▁њихове	-9.53838
▁чланова	-9.53948
▁имамо	-9.53958
▁Поред	-9.54009
▁марта	-9.54111
ручи	-9.54128
▁рођен	-9.54253
зер	-9.5432
▁Љуб	-9.5436
▁играч	-9.54452
▁другом	-9.54559
▁универзитет	-9.54594
▁пренос	-9.5462
▁стандард	-9.54628
цр	-9.54642
▁уопште	-9.5466
▁рећи	-9.54685
зију	-9.548
МИ	-9.54818
▁студија	-9.54861
бел	-9.54879
▁сад	-9.54968
▁коло	-9.54985
▁могућност	-9.55002
▁непријатељ	-9.55057
ИВ	-9.55104
▁услове	-9.55115
▁Бор	-9.55168
▁дође	-9.55207
▁војске	-9.55307
шњи	-9.55307
▁односи	-9.55397
лози	-9.55484
▁бави	-9.55647
▁гроб	-9.557
▁уговор	-9.55764
▁аутора	-9.55833
▁Ан	-9.55855
▁оста	-9.55861
лова	-9.55869
—	-9.55918
▁стари	-9.55958
▁»	-9.56076
пољ	-9.56214
рк	-9.56227
▁осим	-9.56239
пен	-9.56241
тражи	-9.56295
▁степен	-9.56299
▁меч	-9.56378
могућ	-9.56388
▁радио	-9.56475
▁знам	-9.56483
▁Дан	-9.56541
▁Чи	-9.56552
стру	-9.56647
▁позива	-9.56689
▁Же	-9.56857
узет	-9.56895
▁лидер	-9.57038
Свет	-9.57054
▁припада	-9.57121
био	-9.57164
▁односе	-9.57267
▁сарадњу	-9.57346
▁изгуби	-9.57356
БИ	-9.57359
дес	-9.57418
жни	-9.57458
роди	-9.57463
▁пуно	-9.57477
▁сарадњи	-9.57584
▁садржи	-9.57601
▁априла	-9.5777
▁Зна	-9.57775
православ	-9.57816
▁чланак	-9.57827
▁љубав	-9.57943
▁школи	-9.58001
▁Закон	-9.5802
▁напада	-9.58028
▁пројекат	-9.58134
жава	-9.58175
▁садржај	-9.58175
сер	-9.58183
шћу	-9.58217
гро	-9.5822
ВИДЕО	-9.5837
▁линк	-9.58494
▁предузећа	-9.58508
овац	-9.58607
▁Це	-9.5864
▁Црква	-9.58657
СТ	-9.58695
▁смрт	-9.58757
▁страх	-9.58858
ишу	-9.58904
▁посвећен	-9.58925
▁Трамп	-9.58938
вођење	-9.58994
▁земљу	-9.59165
▁свако	-9.5926
ган	-9.59336
това	-9.59353
▁Ша	-9.59394
▁рачуна	-9.59433
▁леп	-9.59481
ИИ	-9.59488
▁Наш	-9.59517
бр	-9.59642
▁Ос	-9.59645
мес	-9.59657
▁потребе	-9.59685
ЛУ	-9.59744
▁домаћин	-9.59745
▁објављен	-9.59803
▁животу	-9.59806
▁готово	-9.59894
▁допринос	-9.59895
▁сајта	-9.59923
▁светског	-9.59957
▁страница	-9.59997
тивно	-9.60027
РО	-9.60056
▁празник	-9.60086
бије	-9.60131
сав	-9.60163
▁територији	-9.60173
▁Ор	-9.60195
▁последњи	-9.60208
нике	-9.6025
топ	-9.60255
ално	-9.6028
коп	-9.60342
▁општи	-9.60351
▁становника	-9.6049
▁нових	-9.60546
▁Црне	-9.60609
пред	-9.60639
▁везан	-9.60726
▁држа	-9.60785
ант	-9.60793
▁распо	-9.60881
ват	-9.60904
▁предлог	-9.60917
ални	-9.60948
љиво	-9.60965
▁заједнице	-9.61052
▁односу	-9.61079
▁нивоу	-9.61132
▁сусрет	-9.61196
▁Гу	-9.61199
–	-9.61199
▁жене	-9.61203
рд	-9.61228
мјер	-9.61294
стри	-9.61339
▁одговори	-9.61373
▁орган	-9.61425
▁земља	-9.61454
▁УН	-9.61473
▁држави	-9.61542
▁новембра	-9.61547
▁јула	-9.61548
▁назива	-9.6156
ктор	-9.61576
▁студије	-9.61584
▁недо	-9.61682
▁даје	-9.61743
▁користе	-9.61819
▁ИИ	-9.61845
▁знања	-9.62009
▁фестивал	-9.62009
▁израз	-9.62095
ИЈА	-9.62098
раж	-9.62129
▁многи	-9.62528
хар	-9.62539
▁првог	-9.62586
сла	-9.62591
чну	-9.62671
евић	-9.62684
▁Гори	-9.62695
Тр	-9.62769
▁Југославије	-9.62796
▁поче	-9.62897
▁прве	-9.62998
▁сигурно	-9.63005
▁X	-9.63026
биљ	-9.63068
▁моје	-9.63088
▁врши	-9.63106
▁додат	-9.63236
вез	-9.63305
▁гост	-9.63395
Ма	-9.63417
▁Србима	-9.63453
▁безбедности	-9.63481
▁нашој	-9.63524
▁разлику	-9.63595
▁Зоран	-9.63668
бин	-9.63734
ђен	-9.63771
▁Прво	-9.63826
фр	-9.63925
▁нарочито	-9.63952
▁Иако	-9.63979
▁српском	-9.64035
▁роман	-9.64041
кад	-9.64104
▁Ком	-9.64114
▁Зашто	-9.6421
▁Балкан	-9.64235
тру	-9.64238
▁Цар	-9.64238
▁рачун	-9.6425
▁разлога	-9.64355
сен	-9.64361
вјет	-9.64422
www	-9.64425
▁споразум	-9.64458
▁сајту	-9.64479
виз	-9.64486
▁доба	-9.64512
▁средстава	-9.64556
тни	-9.64568
бир	-9.64576
▁карактер	-9.64606
▁траг	-9.64637
▁добар	-9.64648
сет	-9.64709
ПС	-9.64728
▁крв	-9.64737
суд	-9.64819
▁лице	-9.64824
исао	-9.6483
▁њихов	-9.64848
ЕН	-9.64885
▁наука	-9.64947
▁морају	-9.64964
▁изврши	-9.64972
▁Мир	-9.64981
▁односа	-9.64985
ОС	-9.65013
овао	-9.65091
▁Фран	-9.65103
▁једини	-9.65114
▁отвори	-9.65127
▁минута	-9.65162
шен	-9.65256
▁услови	-9.6528
▁кући	-9.65313
фик	-9.65317
▁појави	-9.6532
стаје	-9.65401
▁Држав	-9.65419
▁чланови	-9.65432
▁стање	-9.65474
▁покушава	-9.65522
▁неким	-9.65553
▁коришћења	-9.656
вал	-9.65601
▁промени	-9.65603
▁историје	-9.65707
▁јавног	-9.65816
ЈА	-9.65879
▁црн	-9.65889
рам	-9.65913
▁''	-9.65943
▁роб	-9.65954
▁зло	-9.6598
▁млад	-9.65991
▁наступ	-9.66022
сад	-9.66058
дре	-9.66063
▁важно	-9.66094
▁прије	-9.66117
▁век	-9.66128
▁ћете	-9.66179
▁његовог	-9.66259
▁Тај	-9.66286
леп	-9.663
КЕ	-9.66443
▁адреса	-9.66491
▁Приштин	-9.66525
▁тела	-9.66567
▁подне	-9.66621
▁кор	-9.66627
▁напред	-9.66693
ЦИ	-9.66705
▁Пет	-9.66806
ГО	-9.66864
▁Милош	-9.66865
▁првом	-9.66871
▁лекар	-9.66883
▁Основн	-9.66925
▁Јовановић	-9.66953
НУ	-9.66981
▁доктор	-9.66991
▁Устав	-9.67014
▁секретар	-9.67015
▁заборави	-9.67047
шан	-9.67138
▁углавном	-9.67166
▁нашу	-9.6722
еве	-9.67223
▁сасвим	-9.67239
жан	-9.67355
тика	-9.67376
кав	-9.6743
▁Вер	-9.67492
▁дода	-9.67702
▁доста	-9.6772
РТ	-9.67787
▁Сто	-9.67838
вић	-9.67875
▁становништва	-9.67879
▁Нова	-9.67915
физи	-9.67927
▁образовање	-9.67955
▁књижевн	-9.67957
▁предсједник	-9.67992
▁рок	-9.67998
▁успех	-9.67998
ично	-9.68029
▁странке	-9.6804
ређен	-9.68046
▁највећи	-9.68046
дел	-9.68089
шња	-9.68117
▁гол	-9.68125
▁испред	-9.68178
▁Пра	-9.68198
▁Свето	-9.6842
кан	-9.68435
орг	-9.68575
▁мањи	-9.68587
_	-9.68588
▁Додик	-9.68616
▁нашим	-9.68664
▁Савез	-9.68689
▁постао	-9.68722
фил	-9.68734
▁протест	-9.68757
▁налазе	-9.68835
▁везе	-9.68858
рски	-9.68887
▁Христов	-9.68896
вац	-9.69031
▁испод	-9.69096
тски	-9.69139
▁друштво	-9.69211
▁породица	-9.69289
▁децембра	-9.69326
рин	-9.69351
ид	-9.69364
▁одлука	-9.69377
рес	-9.69395
чак	-9.69502
▁пажњу	-9.69518
▁слободна	-9.69537
зов	-9.69606
▁режим	-9.69609
▁преноси	-9.69619
▁издање	-9.69653
▁политике	-9.69671
▁љубави	-9.69895
▁вероватно	-9.69902
▁средства	-9.69912
▁одлуке	-9.69985
ОВА	-9.70039
рет	-9.70046
ОР	-9.70084
▁сре	-9.70089
пар	-9.70106
лаца	-9.70131
▁стању	-9.70134
▁км	-9.7015
душ	-9.70151
▁означен	-9.70173
▁мења	-9.70181
кција	-9.70196
лога	-9.70261
грам	-9.70279
тион	-9.70315
▁Током	-9.70345
чким	-9.70408
тори	-9.70587
▁осигура	-9.70599
▁опис	-9.70635
јић	-9.70669
нер	-9.70669
▁Универзитета	-9.70708
▁износи	-9.7076
рек	-9.70764
фт	-9.70858
лета	-9.70922
▁почетком	-9.70949
▁Тра	-9.70969
▁јединствен	-9.70988
▁портал	-9.71048
▁сати	-9.71136
СА	-9.7114
гру	-9.71229
Отвара	-9.71261
несе	-9.71291
бла	-9.71331
▁августа	-9.71333
▁Исус	-9.71376
▁Јо	-9.71434
▁Кон	-9.71443
све	-9.71459
▁грађевин	-9.71522
ПО	-9.71634
▁одбор	-9.71648
▁статус	-9.71654
ложен	-9.71674
фу	-9.71703
бољ	-9.71786
▁врста	-9.7179
▁доби	-9.71888
▁Сим	-9.71977
▁хоће	-9.71993
▁средине	-9.71994
▁Син	-9.72013
ЧЕ	-9.72015
▁управе	-9.72027
▁упис	-9.72057
▁постави	-9.72069
▁руке	-9.72072
Ко	-9.72085
▁додао	-9.72105
▁музеј	-9.72107
прави	-9.72121
▁Стефан	-9.72181
тне	-9.72223
▁ученици	-9.72241
▁Мед	-9.72245
▁политичке	-9.72246
▁кућа	-9.72343
▁правила	-9.72353
▁имала	-9.72409
▁Богу	-9.72459
▁очекује	-9.7248
▁хиљада	-9.72519
ОМ	-9.72523
▁енглески	-9.72565
▁плаћа	-9.72604
▁Закона	-9.72729
▁образовања	-9.72758
▁споменик	-9.72771
мат	-9.72784
▁брод	-9.72816
▁тврди	-9.72821
▁зид	-9.72822
▁почетка	-9.72849
▁модел	-9.72938
џа	-9.7296
ната	-9.72966
▁покрета	-9.72985
▁његовим	-9.73018
▁нашем	-9.73043
▁Александра	-9.73059
стран	-9.73073
▁органи	-9.73079
рић	-9.73099
ђење	-9.73216
▁ауто	-9.73293
▁јавне	-9.73317
▁последње	-9.73323
▁погледа	-9.73336
▁тело	-9.73386
▁траже	-9.73388
▁Републици	-9.73394
▁побољша	-9.73395
▁путу	-9.73413
▁Пер	-9.73452
▁полу	-9.73479
▁догађаја	-9.73486
времено	-9.73549
▁организован	-9.73559
▁корак	-9.73578
▁здравља	-9.73591
СКИ	-9.73675
▁јануара	-9.73894
▁[...]	-9.73914
сх	-9.74013
▁Христа	-9.74039
дуж	-9.74049
запад	-9.74064
АЛ	-9.7407
▁цело	-9.7408
▁новог	-9.74135
▁Никола	-9.74137
исте	-9.7419
▁Други	-9.74255
прет	-9.74288
вно	-9.74289
▁Скупштине	-9.74317
▁ПРИ	-9.74402
▁једино	-9.7453
пит	-9.74555
▁Српски	-9.74586
▁Бра	-9.74591
▁парк	-9.74646
▁тренутку	-9.7468
тов	-9.74703
▁отвара	-9.74705
овати	-9.74772
чини	-9.74805
▁основа	-9.74928
▁покрет	-9.74977
гри	-9.74985
▁државни	-9.75004
▁далеко	-9.75016
▁Кор	-9.75064
▁развија	-9.75116
пир	-9.7513
▁воли	-9.75132
▁истраживања	-9.75182
▁Хе	-9.75208
▁Чу	-9.75212
▁прихвати	-9.75233
▁задатак	-9.75293
▁великог	-9.75311
▁Википедија	-9.75329
▁резултати	-9.75362
вањем	-9.75369
▁криви	-9.75518
сме	-9.75527
▁слаб	-9.75607
▁епископ	-9.75615
▁шеф	-9.75633
стали	-9.75651
▁Коментари	-9.75678
▁црква	-9.75697
▁машин	-9.75926
вео	-9.76035
ригхт	-9.76053
▁чине	-9.76109
Европск	-9.76121
▁свима	-9.76204
▁Петровић	-9.76215
▁широм	-9.76216
▁Ке	-9.7627
▁делова	-9.76285
▁осам	-9.76303
▁ПРО	-9.7639
▁јавности	-9.76403
лен	-9.76419
▁повезан	-9.76434
рис	-9.7653
▁колег	-9.76552
рана	-9.76579
арх	-9.76586
словен	-9.76606
▁финансира	-9.76676
рон	-9.76723
циони	-9.76778
▁Сабор	-9.76833
▁ваше	-9.76853
шње	-9.76862
▁покушај	-9.7687
▁историји	-9.7689
џе	-9.76917
сну	-9.7695
▁итд	-9.76978
▁заврши	-9.76997
▁позна	-9.7704
▁прочита	-9.77099
▁бори	-9.77106
▁труд	-9.77141
▁враћа	-9.77169
▁многе	-9.77274
нију	-9.77291
вај	-9.7733
▁кап	-9.77356
▁Националн	-9.77386
▁неког	-9.77386
▁кандидат	-9.77389
▁отац	-9.77437
▁тип	-9.77461
▁дизајн	-9.7751
▁услуга	-9.77524
▁победи	-9.77543
▁припрема	-9.77554
мил	-9.77578
▁Стра	-9.77592
▁окуп	-9.77604
вља	-9.77637
тврђ	-9.77643
рат	-9.7765
▁скр	-9.77681
▁Сред	-9.77786
вог	-9.77848
▁треће	-9.77902
▁проф	-9.77908
▁моћ	-9.77947
чевић	-9.77963
▁високо	-9.77972
▁народу	-9.78037
▁Три	-9.78062
▁Фонд	-9.78228
▁њихово	-9.78297
кв	-9.78322
▁смислу	-9.78324
▁такве	-9.78327
▁Ше	-9.78449
▁чије	-9.78461
▁стално	-9.78478
▁одбора	-9.78521
▁науке	-9.78531
овића	-9.78535
▁сваке	-9.78547
тије	-9.78547
▁Саве	-9.78574
▁омогућава	-9.78682
пада	-9.78724
▁тема	-9.78736
▁створи	-9.78752
нић	-9.78808
овања	-9.78982
▁броја	-9.78991
▁грађани	-9.79065
▁могла	-9.79072
▁тој	-9.79111
▁екс	-9.79148
▁такво	-9.79245
▁средње	-9.79276
▁блок	-9.7937
▁Цоп	-9.79456
▁обећа	-9.79616
▁Центар	-9.79655
▁Хрват	-9.79684
говара	-9.79693
▁врата	-9.79736
▁Факултет	-9.7974
▁онај	-9.79746
▁факултета	-9.798
Ми	-9.79928
▁владе	-9.8001
кин	-9.80033
годишње	-9.80063
▁Хи	-9.8009
▁фонд	-9.80091
▁камен	-9.80114
▁Душан	-9.80144
▁којом	-9.80175
▁српска	-9.80209
▁сачува	-9.80211
▁Мој	-9.80217
▁теле	-9.80243
▁Слав	-9.80271
▁Још	-9.80461
▁студент	-9.80464
дра	-9.80476
▁знак	-9.80492
▁Програм	-9.805
▁транс	-9.80532
▁школу	-9.80573
НС	-9.8064
▁игру	-9.80651
рак	-9.80717
▁Светск	-9.80756
▁Жи	-9.80756
пет	-9.80761
живе	-9.80774
▁надлежн	-9.80825
нском	-9.80829
▁енциклопедија	-9.80852
▁Србе	-9.80856
▁Црној	-9.80864
▁Европске	-9.80876
▁објави	-9.80907
ирају	-9.80928
▁св	-9.80939
Бож	-9.80947
▁размишља	-9.81008
▁Бар	-9.81009
▁камп	-9.81092
ИТ	-9.81166
▁Један	-9.8118
▁омогући	-9.81218
зив	-9.81243
▁прима	-9.81246
ствен	-9.81322
▁оф	-9.81331
▁његово	-9.81333
▁подржава	-9.81338
▁Војводине	-9.81371
циона	-9.81417
▁различитих	-9.81426
▁Фе	-9.81432
▁нама	-9.81436
▁лично	-9.81482
▁пријем	-9.81534
љења	-9.81546
стр	-9.81562
▁изузетно	-9.81564
▁манастира	-9.81658
▁произвођач	-9.81674
▁њим	-9.81712
▁сарадње	-9.81719
▁Новог	-9.81749
▁изабран	-9.81763
▁принцип	-9.81769
роб	-9.81907
▁електронско	-9.81919
▁Бања	-9.81982
▁ноћ	-9.81985
▁тиме	-9.8199
нијих	-9.82039
лови	-9.82051
рске	-9.82095
▁горе	-9.82098
▁имена	-9.8223
▁укључујући	-9.82295
шке	-9.823
▁износ	-9.82304
▁региону	-9.82342
БЕ	-9.82429
спор	-9.82472
▁тежи	-9.82514
чних	-9.82517
▁младих	-9.82523
ограф	-9.82538
▁никад	-9.82547
▁новац	-9.82585
▁авион	-9.82598
кратко	-9.8269
маил	-9.82804
▁мод	-9.82846
▁месеци	-9.82856
▁мере	-9.82882
▁добије	-9.82884
▁формира	-9.83023
▁назив	-9.83031
▁адресу	-9.83115
▁улаз	-9.83121
мењен	-9.8313
бед	-9.83161
ора	-9.8335
▁постаје	-9.83436
▁решења	-9.83469
▁доноси	-9.83578
▁решење	-9.83649
▁бира	-9.83697
▁социјал	-9.83736
▁учешће	-9.83736
▁дошао	-9.83741
љава	-9.83751
▁контакт	-9.83812
▁поља	-9.83895
▁круг	-9.83978
ун	-9.83994
пот	-9.84013
▁производа	-9.84107
▁знају	-9.84181
▁улогу	-9.84206
▁локалне	-9.84208
▁представи	-9.84232
▁опште	-9.84253
▁обе	-9.84253
▁стоји	-9.84284
▁бисмо	-9.84388
олог	-9.84472
▁реду	-9.84519
://	-9.84581
љени	-9.8459
глашава	-9.84643
▁схвати	-9.84662
кта	-9.84677
▁избора	-9.84725
▁амерички	-9.84816
▁свечано	-9.84911
пољопривред	-9.8496
тку	-9.84989
▁брани	-9.85007
ГА	-9.85078
▁Српској	-9.85087
помињ	-9.85146
▁немају	-9.85176
▁центру	-9.85197
▁тему	-9.85209
▁одржана	-9.85229
кривен	-9.85251
вица	-9.85259
▁Саду	-9.85303
смо	-9.85383
хемиј	-9.85479
▁насеље	-9.85509
▁Република	-9.8552
▁тј	-9.85525
▁мислим	-9.85578
лд	-9.85668
тија	-9.85723
▁користећи	-9.85738
пан	-9.85868
њује	-9.85904
соб	-9.85914
▁моли	-9.85917
▁Љ	-9.85926
граф	-9.85929
▁Зе	-9.85959
пали	-9.85983
▁СР	-9.86028
▁могући	-9.86155
вин	-9.8624
године	-9.86267
▁ТВ	-9.86285
▁слуша	-9.86286
▁(„	-9.86289
▁политичар	-9.86296
АС	-9.86347
свет	-9.86394
▁кажу	-9.86407
▁врсте	-9.86435
▁укупно	-9.86464
▁Вла	-9.86465
▁предмета	-9.86539
▁Ради	-9.86586
вијек	-9.86597
▁Марковић	-9.86626
▁потенцијал	-9.86699
▁водо	-9.86705
▁исте	-9.86805
▁Док	-9.86827
носи	-9.86834
▁обзира	-9.86913
▁веће	-9.86923
▁наћи	-9.86977
▁РТС	-9.87029
▁прилику	-9.8703
▁мени	-9.87032
▁специјалн	-9.87064
▁пада	-9.87162
нке	-9.87175
▁пак	-9.87259
▁превод	-9.8727
▁парламент	-9.87376
ловић	-9.87415
▁часопис	-9.87432
▁постављен	-9.87439
▁Фа	-9.87441
ради	-9.87485
време	-9.8756
▁Николић	-9.8758
▁рачунар	-9.87582
▁нова	-9.87601
▁одговорност	-9.87638
▁купи	-9.8766
кро	-9.87692
▁руске	-9.87731
▁њој	-9.8774
▁Нико	-9.87756
▁свети	-9.87794
▁састав	-9.8786
сцен	-9.87862
▁култ	-9.87873
АК	-9.87876
▁Ваша	-9.87877
гер	-9.87885
▁дијалог	-9.87909
▁прозору	-9.87927
▁изнад	-9.88071
цем	-9.88084
▁почео	-9.88084
дна	-9.88103
▁Бел	-9.88233
ОГ	-9.88289
▁заједница	-9.88309
▁Што	-9.88325
▁почетку	-9.88408
▁наравно	-9.88452
▁остали	-9.88468
▁очува	-9.88515
грес	-9.88535
▁фебруара	-9.88577
образ	-9.88602
▁нисмо	-9.88662
▁животне	-9.88698
▁патријарх	-9.88726
▁курс	-9.88769
▁воле	-9.88776
▁март	-9.88808
▁Пла	-9.88817
▁логор	-9.88836
▁повећа	-9.88855
бележ	-9.89001
клони	-9.89017
▁Институт	-9.89052
▁ужива	-9.89073
▁Ваш	-9.89112
АЈ	-9.89118
муслиман	-9.89146
▁мобилн	-9.89159
▁тренутно	-9.89178
▁обележава	-9.8924
шев	-9.89269
▁однос	-9.89275
кор	-9.89299
▁занимљив	-9.89324
▁заштити	-9.89344
▁потврди	-9.8936
▁представници	-9.89369
▁Министар	-9.89491
▁Србин	-9.89503
▁канал	-9.89554
зан	-9.89709
▁резултате	-9.89777
сним	-9.89805
▁одлуку	-9.89856
▁убијен	-9.8991
▁метара	-9.89919
▁План	-9.89953
запослен	-9.89982
рац	-9.90035
▁родитељи	-9.9023
бег	-9.90261
▁препозна	-9.90317
▁трг	-9.90361
центр	-9.90385
▁војска	-9.90391
▁Погледајте	-9.90416
били	-9.90443
бје	-9.90483
▁новим	-9.90488
▁истим	-9.90494
▁Дакле	-9.90516
▁најмање	-9.90611
▁својом	-9.90698
▁велико	-9.90717
ЕР	-9.90795
▁терор	-9.90858
▁добили	-9.90953
▁учесник	-9.90986
▁прс	-9.91001
▁Хрватске	-9.91011
стати	-9.91021
▁ОШ	-9.91049
▁Влади	-9.91052
▁политику	-9.91081
вол	-9.91085
▁веку	-9.91096
▁слободно	-9.911
▁почетак	-9.91105
кур	-9.91118
▁свијет	-9.91236
▁земљама	-9.91258
кру	-9.91271
▁разум	-9.91285
▁Оба	-9.91294
јал	-9.9135
▁организацији	-9.91367
▁наслов	-9.91391
▁Био	-9.91464
ово	-9.91504
▁мишљење	-9.91511
дор	-9.91535
рб	-9.91556
▁трећи	-9.916
▁писмо	-9.91613
СО	-9.91697
▁гдје	-9.9175
▁компаније	-9.91751
▁Гра	-9.91758
▁Слободан	-9.91846
АЊЕ	-9.91847
▁обрати	-9.91968
ЋЕ	-9.91994
▁престо	-9.92018
▁недеље	-9.92045
▁послу	-9.92094
▁спор	-9.9217
▁акт	-9.92195
▁Сирији	-9.92231
тери	-9.92251
рова	-9.92258
▁руског	-9.92272
ујемо	-9.92293
▁боје	-9.92313
▁Велики	-9.92333
▁јавља	-9.92336
▁објављени	-9.9235
▁значаја	-9.92355
▁мале	-9.92369
▁јединица	-9.92395
▁идеја	-9.92397
Ђ	-9.9244
▁његовом	-9.92456
▁Дух	-9.92461
▁заправо	-9.92522
јер	-9.92527
љена	-9.9253
▁Оп	-9.9256
▁коришћење	-9.92617
▁економски	-9.9262
тура	-9.92634
▁међутим	-9.9268
▁промене	-9.92727
жно	-9.92727
▁национално	-9.92733
▁омладин	-9.92764
▁прошле	-9.92769
▁част	-9.92794
▁заинтересован	-9.92811
нет	-9.92824
▁долара	-9.92846
▁будућности	-9.92903
изација	-9.92963
▁велику	-9.92981
▁поставља	-9.93058
тира	-9.93075
▁разреда	-9.93093
▁темељ	-9.93143
ПРАВ	-9.93186
▁ситуација	-9.93248
▁аутомобил	-9.93249
▁политика	-9.93252
прес	-9.93267
тивни	-9.93279
▁органа	-9.93284
СЕ	-9.93293
штен	-9.93309
ПР	-9.93337
▁Патријарх	-9.93346
▁освоји	-9.93363
десет	-9.93376
▁Притисни	-9.93444
▁Звезд	-9.93446
основ	-9.93449
▁обзиром	-9.93458
тки	-9.93516
▁наши	-9.93518
ког	-9.93529
▁Лука	-9.93575
Стар	-9.93662
▁обично	-9.93667
▁завршен	-9.93674
▁званични	-9.93691
већ	-9.93699
▁директно	-9.93737
број	-9.93743
сећа	-9.93752
▁свештеник	-9.93765
▁обавеза	-9.93779
ирања	-9.93823
▁духовно	-9.93828
▁националне	-9.93887
ОВ	-9.93896
нику	-9.93904
ИЈЕ	-9.93909
вешт	-9.93923
▁изазов	-9.93953
ШЕ	-9.93959
▁борби	-9.93999
▁удружења	-9.9408
▁дошло	-9.94093
▁гран	-9.94118
▁грех	-9.94157
СС	-9.94174
▁развоју	-9.942
гур	-9.94203
▁симбол	-9.94223
▁срце	-9.94232
▁подручју	-9.94276
дов	-9.94304
▁шире	-9.9432
▁Без	-9.94332
▁добити	-9.9435
▁крст	-9.94391
▁Британиј	-9.94671
▁доступан	-9.94671
▁приватно	-9.94749
▁установа	-9.94766
▁Радио	-9.94786
▁мог	-9.94849
▁окруж	-9.94873
▁додатни	-9.94902
▁сектор	-9.94947
▁буџет	-9.94958
▁узрок	-9.9499
▁виду	-9.9502
▁приче	-9.9503
▁СУ	-9.95104
рица	-9.95112
▁навео	-9.9512
▁сир	-9.95187
▁Сер	-9.95219
сред	-9.95275
▁медијск	-9.95364
▁млади	-9.95373
▁Цо	-9.95397
▁Дачић	-9.95426
▁стара	-9.95449
свештен	-9.95462
▁сабор	-9.95499
поред	-9.95545
▁једној	-9.95645
▁неку	-9.95703
▁уређај	-9.95714
иште	-9.95768
▁учитељ	-9.95769
▁Игра	-9.95772
▁Комисиј	-9.95774
▁октобар	-9.95813
▁Север	-9.95865
▁историју	-9.95933
РЕД	-9.95964
▁сутра	-9.95969
X	-9.9603
српско	-9.96033
пол	-9.96035
станов	-9.96063
▁ријеч	-9.9611
ЊА	-9.96151
▁јача	-9.96186
▁амбасадор	-9.96214
чани	-9.96236
▁полиције	-9.96276
▁Пошто	-9.96331
▁слободне	-9.96338
▁турнир	-9.96369
▁бого	-9.96398
▁цели	-9.96426
▁циљу	-9.96561
трес	-9.96661
▁Петар	-9.96696
▁Рим	-9.96709
▁Брисел	-9.96717
▁комуникациј	-9.96767
▁Поповић	-9.96819
нских	-9.96823
▁такав	-9.97018
▁последњих	-9.9702
▁претходно	-9.9702
▁представљају	-9.97055
драг	-9.97057
▁возила	-9.9709
▁Нов	-9.97187
▁Николај	-9.97193
▁Ипак	-9.97226
▁православни	-9.9729
▁прошло	-9.97316
▁разред	-9.97399
▁домаћи	-9.97404
ИС	-9.97555
▁руку	-9.97579
▁квалитета	-9.97607
рект	-9.97644
▁простора	-9.97652
ЗА	-9.97658
▁вријеме	-9.97679
▁посматра	-9.9773
▁убиств	-9.9781
▁храм	-9.97811
ИМ	-9.97872
бал	-9.97889
▁стави	-9.97952
▁истражива	-9.97953
кције	-9.97955
▁истиче	-9.98003
рит	-9.98028
олошки	-9.98034
▁заједнички	-9.98052
срб	-9.98162
дри	-9.98203
ИЋ	-9.98207
▁чињеница	-9.98253
▁Аутор	-9.98273
порт	-9.98277
▁стручно	-9.98322
▁Пр	-9.98329
▁објасни	-9.98343
▁блог	-9.98355
▁слике	-9.98366
▁вода	-9.98494
▁тиче	-9.98596
▁веб	-9.98642
рани	-9.98652
▁тачно	-9.98737
▁друштву	-9.98755
▁тзв	-9.98806
чињен	-9.9882
▁филма	-9.98962
▁доћи	-9.98977
жење	-9.99007
▁хране	-9.99032
▁разлог	-9.99102
▁чист	-9.99145
▁обезбеди	-9.99166
цијом	-9.99207
сл	-9.99216
▁потреба	-9.99242
▁компанија	-9.99271
*	-9.99276
бом	-9.99277
исто	-9.99283
▁Гру	-9.99298
учени	-9.99341
▁Или	-9.9935
▁годинама	-9.99375
изације	-9.99398
кло	-9.99413
▁радника	-9.99554
нца	-9.99588
▁узима	-9.99592
▁Рас	-9.99596
▁оснива	-9.99665
▁студената	-9.99684
▁електро	-9.99714
тна	-9.99724
▁Вести	-9.99792
▁року	-9.99846
ијан	-9.99909
чкој	-9.99923
▁услов	-9.99924
▁прелаз	-9.99926
▁независ	-9.99985
СТИ	-10.0006
лагање	-10.0007
▁Текст	-10.0007
▁наставе	-10.0008
▁могло	-10.0008
▁неопходно	-10.001
▁Нека	-10.0011
лагања	-10.0012
бро	-10.0015
▁Марко	-10.0015
▁јуче	-10.0019
▁Неопходн	-10.0021
▁Јужн	-10.003
гранич	-10.0032
▁говоре	-10.0037
▁теме	-10.0043
▁објав	-10.0043
▁медија	-10.0046
▁месеца	-10.0046
▁опер	-10.0051
ОВИЋ	-10.0057
▁присуство	-10.0059
рију	-10.0071
▁личности	-10.0083
▁спољних	-10.0083
ПУ	-10.0085
▁ваздух	-10.0094
▁Наравно	-10.0094
▁дис	-10.0094
штампа	-10.01
▁званично	-10.0104
▁Уколико	-10.0104
▁уместо	-10.0111
ДУ	-10.0111
жив	-10.0121
▁болест	-10.0134
вест	-10.0136
▁већина	-10.0142
жени	-10.0143
џи	-10.0151
▁душе	-10.0152
Мо	-10.0156
▁набавке	-10.0163
▁крви	-10.0175
шког	-10.0181
пове	-10.0182
▁највећ	-10.0186
▁грчк	-10.0188
ујући	-10.019
лекс	-10.0192
▁особе	-10.0195
▁данашње	-10.0196
▁Мат	-10.0198
▁Ана	-10.0199
▁показује	-10.02
▁свему	-10.02
▁дакле	-10.0201
▁Лазар	-10.0203
државно	-10.0208
фра	-10.0211
деј	-10.0229
▁коначно	-10.023
▁светски	-10.0235
▁стил	-10.024
бол	-10.0257
љиви	-10.0259
▁спре	-10.026
▁Дана	-10.0262
▁спомен	-10.0263
▁услуге	-10.0269
ПЕ	-10.0273
ЉЕ	-10.0275
крај	-10.0275
▁широк	-10.0291
▁сарадник	-10.0313
▁остаје	-10.0315
▁текста	-10.0328
▁резерв	-10.0329
екс	-10.0329
▁Тада	-10.0331
▁Вашингтон	-10.0339
▁Већ	-10.0341
▁поглед	-10.0342
▁ноћи	-10.0344
цент	-10.0345
▁Гора	-10.0349
▁којег	-10.0349
▁фронт	-10.0355
▁великим	-10.0365
▁суда	-10.0368
▁сила	-10.0377
▁памет	-10.0378
▁Вид	-10.0385
▁гас	-10.0387
▁Нишу	-10.0393
▁Другог	-10.0396
▁ватр	-10.0402
▁Крст	-10.0407
▁оружје	-10.0414
▁Сава	-10.0416
▁јануар	-10.0417
▁неком	-10.0421
▁опасност	-10.0427
▁овако	-10.0429
хер	-10.0429
▁април	-10.0436
▁Епископ	-10.0436
▁поступку	-10.0442
ОЈ	-10.045
▁нуди	-10.0453
▁великом	-10.0458
▁желите	-10.0462
изован	-10.0466
▁испит	-10.0469
▁медији	-10.0472
▁новца	-10.0473
▁различите	-10.0474
▁научи	-10.0477
▁наставља	-10.0478
морал	-10.0496
брз	-10.0506
▁поздрав	-10.0507
ЦИЈА	-10.0509
▁граница	-10.0513
▁будућност	-10.0513
▁војне	-10.0516
▁какав	-10.0522
кал	-10.0522
▁Тим	-10.0527
▁посланик	-10.0529
▁британск	-10.0529
▁мост	-10.0532
▁јун	-10.0534
▁авиона	-10.0534
▁Кине	-10.0541
▁ПРЕ	-10.0541
▁Прилик	-10.0545
гон	-10.0548
ТУ	-10.055
▁Осим	-10.0558
▁садржаја	-10.0566
▁Мон	-10.0569
ификациј	-10.0572
ална	-10.0573
▁поступак	-10.0573
срећн	-10.0575
▁Метохији	-10.0579
▁Том	-10.058
▁армиј	-10.0583
пија	-10.0584
ирао	-10.0589
▁селу	-10.0592
▁директора	-10.0593
ђују	-10.0595
вљен	-10.0603
▁добра	-10.0604
ЕТ	-10.0605
▁њихова	-10.0605
▁косовск	-10.0608
▁расп	-10.0609
▁попул	-10.061
▁његову	-10.0611
▁нову	-10.0614
▁реши	-10.062
▁тексту	-10.0622
мис	-10.0623
▁објављена	-10.0623
▁управља	-10.0627
▁иностран	-10.0641
▁кључн	-10.0646
▁Ши	-10.0648
дић	-10.0652
▁решава	-10.0663
▁неких	-10.0665
▁запослених	-10.0666
▁седм	-10.0667
шир	-10.0673
▁дошли	-10.0677
ИО	-10.0678
▁такмичења	-10.0679
▁цркви	-10.0679
Православ	-10.0681
▁Дом	-10.0683
▁пројеката	-10.0684
▁називом	-10.0686
▁изборима	-10.0689
▁ризик	-10.069
▁подразумева	-10.0695
▁напор	-10.0698
▁кажем	-10.0703
ољуб	-10.071
▁институција	-10.0715
▁свакако	-10.0718
▁другу	-10.0724
▁боја	-10.0725
▁Мора	-10.0727
▁чиме	-10.0728
▁јако	-10.0728
▁криминал	-10.0729
фон	-10.0729
▁сагласност	-10.073
меди	-10.073
▁државу	-10.0733
▁глум	-10.0737
▁девет	-10.0738
▁обавезно	-10.0739
▁дневно	-10.074
▁понос	-10.0741
▁Народно	-10.0742
▁симптом	-10.0751
▁истовремено	-10.0754
мед	-10.0761
▁стратегиј	-10.0763
▁Хрватској	-10.0765
▁процеса	-10.0767
▁предузет	-10.0771
▁пораз	-10.0773
▁књижевности	-10.0774
▁организује	-10.0785
▁траје	-10.079
▁пје	-10.0791
▁следећи	-10.0792
▁цена	-10.0795
▁Ци	-10.08
▁капитал	-10.0801
▁искуство	-10.0803
▁мотив	-10.0806
▁фебруар	-10.0809
▁мр	-10.0811
нзи	-10.0826
▁Мај	-10.0827
▁бивши	-10.0832
▁Рат	-10.0835
ологија	-10.0835
▁верск	-10.0838
▁фактор	-10.0838
▁податке	-10.0842
▁Сан	-10.0844
▁јавних	-10.0847
▁природе	-10.0853
ТВ	-10.0857
станак	-10.0864
▁осталих	-10.0868
▁Сједињен	-10.087
економи	-10.0876
влаче	-10.0876
▁једноставно	-10.0876
▁Злат	-10.0878
▁кредит	-10.0883
њој	-10.0883
сци	-10.0887
▁зглоб	-10.0887
▁песник	-10.0888
бург	-10.0889
▁срца	-10.0895
▁будући	-10.0896
ланд	-10.0902
▁културно	-10.0905
▁вере	-10.0924
▁хит	-10.0925
▁акција	-10.0925
▁припадник	-10.0927
вела	-10.0929
▁празн	-10.0931
ошћу	-10.0937
▁припреми	-10.0938
▁пријави	-10.094
▁данашњи	-10.0941
▁Словени	-10.0946
▁онима	-10.095
▁културу	-10.095
▁архив	-10.0956
збу	-10.0956
▁основне	-10.0959
▁редовно	-10.0962
▁Милошевић	-10.0963
▁двадесет	-10.0965
▁српскохрватски	-10.0967
вуче	-10.0967
▁испита	-10.0972
▁идентитет	-10.0973
▁комби	-10.0974
▁матер	-10.0977
▁државне	-10.0979
сов	-10.098
▁слави	-10.0981
▁почела	-10.0982
▁приказ	-10.0984
▁Караџић	-10.0984
Про	-10.0988
▁користити	-10.0988
▁нагласио	-10.0988
▁светог	-10.0993
▁војника	-10.0996
▁Одлука	-10.0996
вице	-10.1002
чног	-10.1004
▁Треба	-10.1005
Глас	-10.1006
▁стручни	-10.101
▁министра	-10.101
▁политичко	-10.1011
▁њихових	-10.1013
▁општини	-10.1018
▁месец	-10.102
▁челу	-10.1023
клоп	-10.1025
▁жртве	-10.1025
истички	-10.1025
▁великих	-10.1032
▁цео	-10.1043
▁КиМ	-10.1044
Црвен	-10.1047
▁Метохије	-10.1048
▁млађ	-10.1049
▁Јелен	-10.105
▁онлине	-10.105
▁Дома	-10.1053
▁септембар	-10.1054
зелен	-10.1055
▁бомбардова	-10.1059
▁људско	-10.106
чним	-10.106
▁здравље	-10.1064
▁услед	-10.1067
▁вечн	-10.107
▁влади	-10.1072
▁везу	-10.1072
▁преглед	-10.1084
▁Русију	-10.1085
▁садрже	-10.109
▁острв	-10.1097
▁уговора	-10.1098
▁петак	-10.1101
▁времену	-10.1103
шум	-10.1111
▁гласник	-10.113
▁политичких	-10.1132
▁свака	-10.1136
љев	-10.1143
рко	-10.1145
▁помогне	-10.1152
▁Једно	-10.1154
▁бољи	-10.1162
▁Конкурс	-10.1164
▁искључиво	-10.1167
▁границе	-10.1168
кер	-10.1169
▁казао	-10.1172
▁награда	-10.1176
▁бесплатно	-10.1182
▁говорио	-10.1184
▁тест	-10.1187
тх	-10.1192
▁видети	-10.1193
▁Вар	-10.1195
туристичк	-10.1195
▁подсећа	-10.1197
▁држи	-10.12
нички	-10.1204
▁пук	-10.1205
бог	-10.1206
стављање	-10.1212
▁РАД	-10.1214
▁Народне	-10.1217
водећи	-10.1218
▁радови	-10.1222
РС	-10.1223
▁предвиђен	-10.1229
▁облику	-10.123
▁успешно	-10.1238
▁кнез	-10.1249
▁српским	-10.1252
▁простору	-10.1256
▁Ево	-10.1263
шење	-10.1278
СИ	-10.1283
▁Петра	-10.1284
▁Јована	-10.1285
▁Завод	-10.1287
▁Албаниј	-10.1288
);	-10.1289
▁одигра	-10.1293
▁Косовск	-10.1301
луд	-10.1301
▁интереса	-10.1304
▁информиса	-10.1305
▁диск	-10.1311
▁различитим	-10.1312
▁написао	-10.1312
▁Руске	-10.1317
фан	-10.1318
инама	-10.1322
▁Пала	-10.1324
▁борбу	-10.1325
шар	-10.1328
▁моја	-10.1328
руши	-10.1329
стане	-10.1329
▁апостол	-10.1335
▁корисника	-10.1336
ојевић	-10.1336
▁открива	-10.1336
ОН	-10.134
▁издај	-10.1344
▁различит	-10.1346
▁награде	-10.1347
▁закључи	-10.135
▁скупштине	-10.1353
▁упути	-10.1364
▁Удружења	-10.1371
▁старе	-10.1372
▁Политика	-10.1373
▁запис	-10.1375
▁крајем	-10.1377
▁разматра	-10.1383
украјинск	-10.1384
вил	-10.1386
▁безбедност	-10.1389
АМ	-10.139
▁православне	-10.1395
држава	-10.1395
▁форум	-10.1396
▁независност	-10.1396
▁највеће	-10.1401
▁Исти	-10.1401
▁начелник	-10.1402
ацијом	-10.1404
▁Стев	-10.1407
правно	-10.1415
▁Босне	-10.1418
роз	-10.1418
▁мом	-10.1422
▁пацијент	-10.1425
▁бивше	-10.1425
сор	-10.1426
▁објавио	-10.1427
▁немачки	-10.1427
▁енергије	-10.1437
▁Христ	-10.1455
била	-10.1457
▁акције	-10.1464
овог	-10.1465
▁Вес	-10.147
бић	-10.1471
▁партије	-10.1479
мртв	-10.1479
▁руско	-10.1491
▁слично	-10.1495
▁њиховим	-10.1497
▁подаци	-10.15
бож	-10.1512
АВ	-10.1517
през	-10.1517
▁захваљујући	-10.1522
▁инфраструктур	-10.1528
ређује	-10.1528
министр	-10.1531
бур	-10.1531
бле	-10.1532
дјел	-10.1537
▁његових	-10.1539
▁војно	-10.1544
▁пружи	-10.1546
▁листа	-10.1546
ничке	-10.1547
▁хотел	-10.1547
▁Можда	-10.1552
тс	-10.1554
▁Рај	-10.1554
▁војни	-10.1559
▁књигу	-10.1564
▁одржавање	-10.1566
▁утврди	-10.1567
ВОЈ	-10.1567
енција	-10.1569
парт	-10.1574
ндер	-10.1576
▁звезда	-10.1584
▁шири	-10.1584
Међународн	-10.1596
▁постане	-10.1597
▁доказа	-10.16
▁командант	-10.1601
▁сваку	-10.1601
▁Оно	-10.1602
▁појединачн	-10.1607
▁Колико	-10.1614
чел	-10.1623
▁насеља	-10.1625
▁градоначелник	-10.1625
▁писац	-10.1628
▁међународно	-10.1629
▁последица	-10.1638
дник	-10.1642
▁указује	-10.165
▁зарад	-10.1656
▁превоз	-10.1657
▁љуби	-10.1663
▁основних	-10.1664
▁Суд	-10.1664
▁господин	-10.1671
▁заједничко	-10.1673
▁чија	-10.1674
ирани	-10.1679
▁Милорад	-10.1694
рска	-10.1694
▁утврђен	-10.17
▁потпуности	-10.1704
регионал	-10.1707
▁виш	-10.1718
▁инжењер	-10.1724
▁Црна	-10.1725
кори	-10.1736
W	-10.1744
овали	-10.1748
▁завршн	-10.175
▁напусти	-10.1754
▁Балкану	-10.1762
▁песме	-10.1764
КОМ	-10.1766
▁близини	-10.1767
храбр	-10.1768
▁младе	-10.1772
▁промена	-10.1773
▁представник	-10.1774
▁Промени	-10.1781
▁ближ	-10.1781
▁добила	-10.1782
званич	-10.1784
▁термин	-10.1788
ДП	-10.1789
▁остале	-10.1796
▁фудбал	-10.18
▁Ови	-10.1806
▁састанак	-10.1808
▁Републичк	-10.1811
До	-10.1813
▁Студ	-10.1817
▁Контакт	-10.1817
▁недељу	-10.1818
▁производи	-10.1828
Ви	-10.184
▁Број	-10.1845
▁градова	-10.1846
▁демон	-10.1858
▁АП	-10.1859
▁јави	-10.1861
▁ресурс	-10.1861
БУ	-10.1863
▁оправда	-10.1869
тинг	-10.1874
▁служе	-10.1874
▁новембар	-10.188
ЉА	-10.1885
▁бет	-10.1887
ране	-10.1887
технолошк	-10.1892
?!	-10.1896
▁Загреб	-10.1899
▁схвата	-10.1899
▁мотор	-10.19
▁добре	-10.1902
▁остало	-10.1903
БОР	-10.1903
▁Сарајеву	-10.1905
▁кола	-10.191
зар	-10.191
▁реалн	-10.1915
▁снагу	-10.192
▁недавно	-10.1923
дела	-10.1928
▁Вели	-10.1932
дну	-10.1932
▁отворено	-10.1939
▁Музеј	-10.1951
▁комисије	-10.1951
стану	-10.1972
▁Ново	-10.1972
ицама	-10.1972
▁пуш	-10.1978
▁броју	-10.1981
▁Бран	-10.1986
▁дозволи	-10.1987
УС	-10.1988
▁краља	-10.199
▁поступка	-10.1994
▁листу	-10.1995
▁ислам	-10.1999
▁Михаил	-10.2
хвати	-10.2006
▁наоружа	-10.2007
▁идеје	-10.2018
▁јак	-10.2021
▁протекл	-10.2022
▁осм	-10.2029
▁Прва	-10.203
▁риб	-10.2039
▁библиотека	-10.2045
▁јавност	-10.2047
▁онога	-10.205
▁ситуације	-10.2057
руг	-10.2058
▁собом	-10.2063
▁Културе	-10.2064
▁Организ	-10.2064
▁српској	-10.2065
вођења	-10.2071
▁територије	-10.2077
алног	-10.2077
▁стварно	-10.2077
▁иначе	-10.2079
▁међународне	-10.2083
▁циљем	-10.2084
▁комплекс	-10.2084
дељ	-10.2087
▁комун	-10.2101
▁многим	-10.2103
▁бомб	-10.2106
▁интервју	-10.2115
Глав	-10.2118
▁јул	-10.2119
љак	-10.2121
▁најави	-10.2121
хваћен	-10.2122
▁радост	-10.2122
▁слободе	-10.2125
▁праву	-10.2132
▁елемент	-10.2133
позиција	-10.2135
▁терен	-10.2142
▁чврст	-10.2148
глу	-10.2154
▁споразума	-10.2155
▁Првог	-10.2155
▁вје	-10.2157
▁отпад	-10.2158
▁знамо	-10.2164
▁децембар	-10.2173
▁концерт	-10.2173
▁укључи	-10.2175
▁лоше	-10.2177
станка	-10.2179
шку	-10.2183
▁област	-10.2184
▁Мађарск	-10.2188
▁такмичење	-10.2193
▁Правилник	-10.2199
▁Стратешке	-10.2199
▁филозоф	-10.2199
▁слободу	-10.2201
лл	-10.2203
▁јединице	-10.2208
▁долазе	-10.2208
▁осталог	-10.2213
ОП	-10.2224
штву	-10.2225
▁Члан	-10.2231
вајући	-10.2231
▁служби	-10.2233
▁правни	-10.2235
ологије	-10.2236
▁њиховог	-10.2241
▁задржава	-10.2244
▁слобода	-10.2253
▁мрежи	-10.2258
▁процесу	-10.2259
▁дуб	-10.2265
▁видљив	-10.2271
▁Одјави	-10.2271
јана	-10.2271
▁законом	-10.2275
▁Коментарише	-10.2277
СВЕТ	-10.2277
шава	-10.2281
нским	-10.2281
▁Лондон	-10.2284
▁дијаг	-10.2285
Прав	-10.2285
мишљен	-10.2292
▁вече	-10.2293
▁снажн	-10.2295
▁Дуб	-10.2302
▁Код	-10.2304
Цхат	-10.2311
▁постала	-10.2311
▁Међу	-10.2312
▁странка	-10.2314
▁Велика	-10.2316
▁Кур	-10.2321
▁искуства	-10.2324
▁корист	-10.2329
температур	-10.233
▁објашњава	-10.233
Здрав	-10.2331
▁њене	-10.2332
▁благослов	-10.2336
бље	-10.2337
▁постојећ	-10.2338
ЖЕ	-10.2339
▁Јапан	-10.2343
љо	-10.2346
▁утакмице	-10.235
▁институције	-10.2356
▁европске	-10.2358
познат	-10.2358
▁саопштил	-10.2363
▁родитеља	-10.237
▁Стан	-10.2371
▁Друго	-10.2374
▁Уједињен	-10.2375
▁славе	-10.2375
КСНУМКС	-10.2376
▁Свој	-10.2376
гов	-10.2381
▁Града	-10.2386
фир	-10.2397
пише	-10.2398
▁француски	-10.2403
▁Филип	-10.2406
▁Иринеј	-10.2409
▁изградњу	-10.2409
Политик	-10.241
▁негатив	-10.241
▁имате	-10.2412
▁зове	-10.2419
београд	-10.2423
▁вредност	-10.2425
▁представника	-10.2429
▁логи	-10.2435
▁Можете	-10.2435
▁близу	-10.2443
ИМА	-10.245
▁ефикасн	-10.2453
▁капацитет	-10.2462
рског	-10.2476
▁установе	-10.2479
▁Овде	-10.2483
▁поруке	-10.2483
▁Миш	-10.2483
▁другој	-10.2496
позитив	-10.2502
▁потребна	-10.2502
▁Било	-10.2503
ИНА	-10.2507
опште	-10.2511
сјећа	-10.2516
▁реализ	-10.252
▁Википедије	-10.2522
▁објеката	-10.2525
чина	-10.2526
▁масовн	-10.2527
▁Фонда	-10.2528
▁праве	-10.2537
пала	-10.2544
▁намењен	-10.2547
▁Канцелариј	-10.2549
▁веру	-10.255
КР	-10.2555
▁сматрају	-10.2561
вич	-10.2565
ИХ	-10.2576
▁манастиру	-10.2582
▁детета	-10.2587
▁основни	-10.2588
▁Циљ	-10.2605
▁унутра	-10.2605
▁ево	-10.2614
▁реке	-10.2616
▁комисиј	-10.2616
▁честит	-10.2616
▁савремени	-10.2619
▁Христос	-10.2619
▁вози	-10.2621
▁надзор	-10.2625
▁медијима	-10.2628
атора	-10.2628
▁наставника	-10.2629
▁август	-10.2631
▁подручја	-10.2644
▁молитве	-10.2644
▁буџета	-10.2645
▁извора	-10.2652
▁Кина	-10.2655
▁сликар	-10.2655
▁Дејан	-10.2657
▁плод	-10.2657
▁књизи	-10.2658
▁геноцид	-10.2678
демо	-10.2679
▁научно	-10.2686
▁жеље	-10.269
пије	-10.2691
▁помен	-10.2694
чност	-10.2704
▁агенциј	-10.2705
▁Сав	-10.2707
▁Ант	-10.2715
нско	-10.2719
реб	-10.2722
кос	-10.2735
▁духовни	-10.2735
▁Бил	-10.2738
▁врх	-10.2745
▁нуклеарн	-10.2746
▁знање	-10.2751
▁Руси	-10.2758
▁официр	-10.2758
▁непри	-10.2759
игра	-10.2766
▁светском	-10.2767
▁америчке	-10.2774
живљава	-10.2775
▁Херцеговине	-10.2781
▁приста	-10.2786
▁отпор	-10.2789
▁агенција	-10.2789
АЊА	-10.2789
▁самог	-10.2794
▁мреже	-10.2795
▁Ник	-10.2803
▁деси	-10.2805
▁Марија	-10.2807
▁лиценцом	-10.2811
▁Генерал	-10.2812
слобод	-10.2814
правља	-10.2823
рство	-10.2825
▁лош	-10.2833
терористичк	-10.2838
ујем	-10.2842
чник	-10.2845
▁управљање	-10.2849
▁километара	-10.285
црта	-10.2854
▁истина	-10.2854
▁гради	-10.2855
▁употребу	-10.2857
▁ГОДИНЕ	-10.2863
СКА	-10.2866
▁одреди	-10.2868
▁власник	-10.287
▁купа	-10.2875
▁мандат	-10.2878
▁верни	-10.288
▁морамо	-10.2889
▁Школ	-10.2889
Мислим	-10.2892
▁поручио	-10.2892
▁Трг	-10.2892
▁смањи	-10.2899
љивост	-10.2899
▁диплома	-10.29
зем	-10.29
▁чет	-10.2901
▁мајка	-10.2902
▁уређена	-10.2906
▁сервис	-10.2906
вик	-10.2908
▁Почетна	-10.2919
▁Шу	-10.2922
▁редакциј	-10.2928
▁западно	-10.2928
▁оквир	-10.2929
▁делатности	-10.2933
брана	-10.2935
▁Општина	-10.2937
гађа	-10.2942
▁корисник	-10.2949
НОГ	-10.2953
прија	-10.2958
▁остао	-10.2958
▁Младен	-10.2962
▁самоуправе	-10.2967
мија	-10.2972
▁Бер	-10.2985
видео	-10.2986
▁прилика	-10.2987
▁светлост	-10.2987
▁породици	-10.2996
▁Ове	-10.3001
▁зависи	-10.3008
▁Савета	-10.3009
ОК	-10.3009
▁очигледно	-10.301
▁Украјине	-10.301
▁мишљења	-10.301
▁радом	-10.3016
▁Одељење	-10.3017
▁Беч	-10.3018
глобал	-10.302
јест	-10.3027
▁Православне	-10.3028
▁кинеск	-10.3032
▁деци	-10.3037
ЧИ	-10.3043
▁енциклопедије	-10.3045
▁друштвено	-10.3053
▁обичај	-10.3053
▁осваја	-10.3055
▁кандидата	-10.3059
туре	-10.3061
▁занима	-10.3064
▁услова	-10.3069
▁зграде	-10.3074
▁чује	-10.3075
▁прегледа	-10.3077
НИК	-10.3077
▁партија	-10.3081
▁помаже	-10.3084
▁сексуалн	-10.3088
Новости	-10.3092
▁историја	-10.3092
лажу	-10.3093
▁погледу	-10.3096
▁унутар	-10.3097
ништво	-10.31
бачен	-10.31
▁обраћа	-10.3102
▁привремен	-10.3102
ређење	-10.3104
ГРАД	-10.3106
▁унутрашњих	-10.3109
▁фотографија	-10.3119
▁БЕОГРАД	-10.3123
цијама	-10.3124
Млад	-10.3125
▁писан	-10.3127
▁Године	-10.3131
▁грађанима	-10.3131
▁ученике	-10.3133
▁борба	-10.3134
гија	-10.3142
▁подсети	-10.3146
▁улици	-10.3153
СРБ	-10.3154
▁притисак	-10.3159
прости	-10.316
влачи	-10.3161
▁Вол	-10.3163
ничар	-10.3166
▁пева	-10.3173
подобн	-10.3182
фар	-10.3185
ијског	-10.3186
▁референдум	-10.3195
▁насиља	-10.3196
▁Војске	-10.3197
▁Ху	-10.3197
љевић	-10.3198
▁понекад	-10.3202
▁испуни	-10.3205
▁природни	-10.3206
▁приказан	-10.3209
▁историчар	-10.3209
▁Извештај	-10.3216
нску	-10.3221
Из	-10.3221
▁Интернет	-10.3224
▁храма	-10.3227
▁мрежа	-10.3231
▁плу	-10.3236
▁Чак	-10.3236
рачун	-10.3239
ношћу	-10.3241
▁трен	-10.3245
▁сиријск	-10.3245
АНА	-10.3245
▁представљен	-10.3249
▁лев	-10.3251
▁остваре	-10.3252
▁испуњава	-10.326
▁видим	-10.3263
ијске	-10.3263
▁Савет	-10.3264
▁Ауторство	-10.3264
▁региона	-10.3268
ША	-10.3273
▁Израел	-10.3274
▁особи	-10.3275
▁првих	-10.3277
▁суботу	-10.3282
▁Одбор	-10.3285
▁мржње	-10.3285
▁другачије	-10.3289
▁заменик	-10.329
▁оцени	-10.3292
▁реакциј	-10.3293
▁спроводи	-10.331
▁непосредно	-10.331
▁изазива	-10.3311
▁Ненад	-10.3322
▁оружја	-10.3325
▁чланица	-10.3327
▁апсолутн	-10.3339
▁обухвата	-10.3339
▁Добро	-10.3341
▁догоди	-10.3346
▁понуда	-10.335
▁Лук	-10.335
▁изговор	-10.3352
▁човјек	-10.3354
▁болесн	-10.3361
▁регистр	-10.3362
Општи	-10.3364
▁озбиљно	-10.3369
▁познати	-10.3373
▁систему	-10.3377
исање	-10.3379
▁Вам	-10.3379
▁целог	-10.3382
▁привредни	-10.3383
▁спава	-10.3384
▁комплет	-10.34
мишља	-10.3405
▁финансијски	-10.3405
▁подацима	-10.3414
улт	-10.342
▁календар	-10.3427
СофаСцоре	-10.3442
▁култура	-10.3443
▁проблеме	-10.3445
пић	-10.3445
▁ратни	-10.3446
▁потез	-10.3446
▁употребе	-10.3449
▁Субот	-10.3452
шевић	-10.3455
зре	-10.3455
▁указа	-10.3455
ард	-10.3467
▁речено	-10.3468
▁наводно	-10.3469
▁Руски	-10.3477
ношење	-10.348
▁Може	-10.3482
▁Велике	-10.3482
жур	-10.3487
▁технологије	-10.3493
ИЛ	-10.3493
▁писмен	-10.3494
▁Свете	-10.3497
Дунав	-10.3512
▁цивилн	-10.3516
▁донет	-10.3523
▁њеног	-10.3524
▁душа	-10.3525
▁полиција	-10.3525
јављује	-10.3529
СКО	-10.3531
▁ускоро	-10.3531
виђа	-10.3539
▁контролу	-10.3545
▁спречи	-10.355
▁папир	-10.355
ићев	-10.3551
▁слику	-10.3556
▁награду	-10.3558
▁посете	-10.3563
▁СВЕ	-10.3567
▁учествује	-10.3568
▁тренутка	-10.3568
▁видимо	-10.3574
▁ученицима	-10.358
▁понуди	-10.3581
корисни	-10.3584
▁Међународни	-10.3586
изацију	-10.3587
▁крста	-10.359
▁супротно	-10.3593
ЦА	-10.3594
▁најчешће	-10.3598
▁хладн	-10.3601
▁програму	-10.3603
▁форму	-10.3603
дови	-10.3604
▁равно	-10.3609
▁пријаве	-10.3613
Жив	-10.3616
▁Горан	-10.3618
▁Америка	-10.3619
При	-10.3619
▁главу	-10.362
▁руских	-10.3622
▁губи	-10.3627
▁Фр	-10.3629
▁истом	-10.3629
▁поштовање	-10.3632
▁приход	-10.3634
▁плану	-10.3635
▁тадашњ	-10.364
▁лечење	-10.3641
▁четвртак	-10.3651
▁какво	-10.3653
▁Немачке	-10.3656
▁увреде	-10.3666
▁основи	-10.3666
▁старији	-10.3667
▁страну	-10.3672
▁Молимо	-10.3673
▁прихвата	-10.3673
▁рукама	-10.3673
▁Џе	-10.3674
ЊИ	-10.3679
терапиј	-10.3684
▁значајно	-10.3688
овски	-10.3688
▁прошлости	-10.3688
▁Хрватска	-10.3692
истичке	-10.3698
▁електричн	-10.3702
▁књижевност	-10.3706
▁странице	-10.3708
▁искористи	-10.3717
▁супруг	-10.3718
▁Цркви	-10.3733
▁ослободи	-10.3733
▁семинар	-10.3734
СК	-10.3741
Делит	-10.3749
ократ	-10.3751
▁практично	-10.3761
▁врше	-10.3763
▁западни	-10.3767
▁сарадња	-10.3771
▁врху	-10.3773
▁Иран	-10.3774
▁подршке	-10.3778
▁туђ	-10.3781
уреди	-10.3781
▁Ваше	-10.379
АРА	-10.3792
▁објављивања	-10.3793
▁меша	-10.3794
▁подноси	-10.38
▁удаљен	-10.3801
▁милион	-10.3803
▁воду	-10.3803
▁додаје	-10.3806
▁посебни	-10.3809
▁унапред	-10.381
нској	-10.381
▁људских	-10.3812
▁дочека	-10.3813
▁Москви	-10.3816
▁СПЦ	-10.3817
БРА	-10.382
▁тренер	-10.3823
▁предност	-10.3823
Службени	-10.3824
▁херој	-10.3825
▁извоз	-10.383
▁оставља	-10.3833
▁Миле	-10.3838
полицијск	-10.3839
јављен	-10.3843
▁Мали	-10.3847
▁почели	-10.3848
▁изјави	-10.3848
▁ликовн	-10.3851
!“	-10.3856
▁Марк	-10.3859
▁основан	-10.3862
▁физичко	-10.3868
▁Главни	-10.3869
▁околности	-10.3872
▁стања	-10.3872
▁многих	-10.3877
▁Удружење	-10.3877
▁високи	-10.3878
▁производњу	-10.3881
▁образовању	-10.3885
▁угрожен	-10.3885
▁Горњ	-10.3887
▁Борис	-10.3888
▁дипл	-10.389
▁Константин	-10.3893
▁штит	-10.3893
▁крив	-10.3896
▁Антон	-10.3897
▁шампион	-10.39
▁показују	-10.3901
▁производње	-10.3905
▁спремни	-10.3905
▁екипа	-10.3908
Бранко	-10.391
▁Босни	-10.3911
▁успоставља	-10.3924
▁економско	-10.3925
марк	-10.3927
▁институт	-10.3931
▁некадашњ	-10.3932
▁Реч	-10.3935
присутн	-10.3937
▁Марин	-10.394
▁затворе	-10.3941
▁Пољск	-10.3947
▁заштићен	-10.3947
▁припадници	-10.3947
▁мада	-10.3948
бавља	-10.3948
▁беше	-10.3951
▁распоред	-10.3952
▁цркву	-10.3955
▁чудо	-10.3957
▁позва	-10.3957
СКЕ	-10.3958
▁Божић	-10.3972
▁Наши	-10.3972
▁опреме	-10.3978
▁правде	-10.3993
▁воћ	-10.3996
▁чувен	-10.3997
гин	-10.3998
▁ЈАВН	-10.4001
историјско	-10.4008
▁његови	-10.4011
▁Који	-10.4015
▁воље	-10.4019
▁његовој	-10.4019
ништва	-10.4021
рус	-10.4021
професионал	-10.4022
▁успешн	-10.4029
▁реци	-10.404
▁послови	-10.404
▁Културн	-10.405
Архив	-10.4051
▁чим	-10.4059
▁силе	-10.4074
▁банке	-10.4076
▁Ђур	-10.4076
▁наведени	-10.4082
дневни	-10.4085
▁Центра	-10.4087
▁ПРЕД	-10.409
▁прилог	-10.4092
▁евро	-10.4097
ровић	-10.4098
▁видели	-10.4114
▁Федерације	-10.4116
▁дозвољено	-10.4116
▁базе	-10.4116
▁Македон	-10.4118
▁чињенице	-10.4119
▁свакодневно	-10.412
▁завршио	-10.4127
КС	-10.413
ЕК	-10.4133
▁факултету	-10.4134
▁природно	-10.4134
▁Свако	-10.4135
▁Кореј	-10.4137
▁спречава	-10.4151
▁Стр	-10.4151
▁служба	-10.4151
гину	-10.4153
Мил	-10.4154
раћен	-10.4162
▁уметник	-10.4166
▁изврше	-10.4172
▁европских	-10.4174
ВУ	-10.4177
▁брак	-10.4185
▁оснивач	-10.419
▁освет	-10.4193
▁плати	-10.4194
▁тебе	-10.4194
▁прилично	-10.4198
▁СНС	-10.4201
▁пролаз	-10.4202
једна	-10.4204
▁Немачка	-10.4206
▁Пита	-10.4212
▁Украјини	-10.4213
▁најновиј	-10.4214
▁анђел	-10.4221
▁тачке	-10.4225
▁затворен	-10.423
▁домаће	-10.4232
ИР	-10.4233
римск	-10.4235
▁новчан	-10.4235
▁саопштењу	-10.4237
▁унутрашње	-10.4238
▁сезоне	-10.4241
▁Амерички	-10.4245
СТАВ	-10.425
грант	-10.4257
хај	-10.4263
мрз	-10.4265
▁снима	-10.4268
▁милијарди	-10.4269
васпита	-10.4272
ијска	-10.4281
▁таква	-10.4288
▁конференцији	-10.4288
Претходн	-10.4301
▁обавезу	-10.4303
двој	-10.4305
▁остане	-10.431
плаћен	-10.4316
▁истраживање	-10.4317
пул	-10.4323
▁одмор	-10.433
▁молимо	-10.433
▁Куп	-10.4337
▁фотографије	-10.4337
▁учесници	-10.4341
▁уредник	-10.4341
▁метал	-10.4342
▁Топ	-10.4343
Ин	-10.4348
▁утакмица	-10.4349
ДАН	-10.435
▁светитељ	-10.4354
давно	-10.4356
▁очима	-10.4356
ПИС	-10.4358
▁изложбе	-10.4365
▁Француске	-10.4373
▁ЈУ	-10.4375
▁њихову	-10.4376
▁ефект	-10.438
▁Фор	-10.4385
▁осећај	-10.4387
▁море	-10.4396
совјетск	-10.44
▁уништи	-10.4401
▁едук	-10.4404
▁одвија	-10.4405
▁осталим	-10.4411
▁девојчиц	-10.4414
НИХ	-10.4418
▁нормал	-10.4422
▁доводи	-10.4428
▁бак	-10.4429
▁дипломатск	-10.4429
▁контекст	-10.443
▁прикупља	-10.4438
▁стручњак	-10.4438
▁аеродром	-10.4446
▁технологија	-10.4446
▁третман	-10.4446
ЊУ	-10.4446
пље	-10.4449
▁оглас	-10.4457
▁прекид	-10.446
▁топло	-10.446
▁аутомат	-10.4468
▁идеал	-10.4485
▁бази	-10.449
Пре	-10.4492
▁пољу	-10.4498
▁придружи	-10.4503
▁руководи	-10.4503
▁постојања	-10.4503
Анђел	-10.4509
бот	-10.451
▁ситуацију	-10.4511
▁Албанци	-10.4511
▁Тек	-10.4513
▁Исто	-10.4526
плав	-10.4535
▁Сарајево	-10.4536
▁креатив	-10.4537
▁просвет	-10.4545
▁причу	-10.4551
бук	-10.4553
▁верује	-10.456
▁Наиме	-10.4562
▁њихови	-10.4564
▁непознат	-10.4567
▁Пут	-10.4568
МУ	-10.4569
▁Црног	-10.457
▁кућу	-10.4571
ЗИ	-10.4573
▁жртава	-10.4577
▁округа	-10.4577
љуб	-10.4581
▁Крим	-10.4582
▁дуже	-10.4582
СТО	-10.4586
идент	-10.4588
нцу	-10.459
▁мала	-10.459
▁Епархиј	-10.4593
▁прву	-10.4594
▁избори	-10.4599
▁Избор	-10.4614
албанск	-10.4618
▁правилима	-10.4619
▁Крај	-10.4621
▁студенти	-10.4625
▁одбрану	-10.4627
▁будуће	-10.4631
▁Александр	-10.464
▁истину	-10.464
▁комад	-10.4642
▁никакве	-10.4643
▁Ер	-10.4643
▁заснован	-10.4643
разум	-10.4649
▁школске	-10.4651
▁страшн	-10.4659
Фото	-10.466
▁сложен	-10.4661
товић	-10.4662
▁пропуст	-10.4664
▁Богородице	-10.4667
▁Европска	-10.4677
▁Џон	-10.4679
▁интервен	-10.4685
▁КМ	-10.4691
сион	-10.4694
шћа	-10.4694
ирали	-10.4695
практич	-10.4704
▁Мало	-10.4715
▁Милутин	-10.4718
▁Храм	-10.473
▁кривично	-10.473
▁дозволе	-10.4735
ШТА	-10.4736
▁људски	-10.4739
овцу	-10.474
перспектив	-10.4743
▁српску	-10.4743
▁контроле	-10.4743
енергетск	-10.4743
▁возач	-10.4744
▁обавезе	-10.4745
коном	-10.4746
оперативн	-10.475
▁побу	-10.4751
▁пријатељима	-10.4753
▁окупља	-10.4754
▁управа	-10.4756
АЛИ	-10.4758
▁људска	-10.4768
▁ратова	-10.4768
▁Неки	-10.4769
▁главе	-10.4777
▁Европа	-10.4777
▁саставу	-10.4779
▁стварање	-10.4782
▁Бај	-10.4783
▁такозван	-10.4783
▁једним	-10.4785
▁понаша	-10.4785
▁најпре	-10.4786
▁Једна	-10.4788
▁храму	-10.4791
▁Књиг	-10.4796
▁алат	-10.48
▁екстрем	-10.4802
▁дисциплин	-10.481
▁јавним	-10.4817
▁понавља	-10.4819
▁сву	-10.4824
▁библиотеке	-10.4827
▁Божије	-10.4828
▁стих	-10.4829
▁посед	-10.4832
▁Државе	-10.4833
Од	-10.4833
▁остала	-10.4843
▁Вуј	-10.4844
▁учествовали	-10.4844
▁правима	-10.4845
▁разних	-10.4846
▁изложба	-10.4861
▁излаз	-10.4862
▁транспорт	-10.4862
▁терет	-10.4874
▁истог	-10.4877
▁грађане	-10.4878
▁испитива	-10.4881
жд	-10.4885
лф	-10.489
▁друштвене	-10.4895
▁победе	-10.4896
▁душу	-10.4899
▁способности	-10.4903
▁Мило	-10.4908
УП	-10.4908
▁основно	-10.4914
▁лакше	-10.4919
▁макар	-10.4924
▁србск	-10.4929
▁избегл	-10.4933
▁шума	-10.4939
▁Ен	-10.4941
▁такмичењу	-10.4946
▁усвоји	-10.4947
▁Општине	-10.495
▁чисто	-10.4952
▁групи	-10.4954
▁порука	-10.4956
▁политичка	-10.4956
гнут	-10.4957
▁понедељак	-10.4963
▁лак	-10.4965
▁хуман	-10.4968
▁војници	-10.4979
▁корисници	-10.4981
формациј	-10.4981
▁мулти	-10.4982
▁иностранству	-10.4982
▁тржишту	-10.4989
▁поделили	-10.4989
визија	-10.4994
▁Демократск	-10.4997
▁супер	-10.5001
вођа	-10.5004
обавезн	-10.5011
▁самоуправ	-10.5012
▁провери	-10.5012
▁посред	-10.5014
ционо	-10.5016
▁манифестације	-10.5016
▁успео	-10.502
прецизн	-10.5021
▁изглед	-10.5026
▁узраст	-10.503
▁циклус	-10.5032
▁третира	-10.5032
▁будемо	-10.5033
▁верујем	-10.5038
▁дубоко	-10.5041
▁креира	-10.5041
▁пореск	-10.5048
▁недеља	-10.5051
▁Благо	-10.5053
вријед	-10.5055
▁Крагујевцу	-10.5058
▁заустави	-10.5058
▁пакет	-10.5059
▁Сваки	-10.5063
ТРА	-10.5063
▁жеља	-10.5069
▁спрема	-10.5072
▁извесн	-10.5074
▁напомен	-10.5076
▁промовиса	-10.5084
▁међународним	-10.5085
▁национални	-10.5092
▁Ђорђе	-10.5092
▁школама	-10.5094
ДР	-10.51
▁оригиналн	-10.5104
индустријск	-10.511
▁присутни	-10.511
▁издавач	-10.511
▁њиховом	-10.5114
▁ђак	-10.5117
▁седници	-10.5121
јављују	-10.5128
комонс	-10.5129
звуч	-10.5134
▁активно	-10.5136
▁Трој	-10.5137
▁остати	-10.5143
▁уторак	-10.5145
▁Крије	-10.5152
▁терену	-10.5153
▁Васкрс	-10.5153
политич	-10.5157
▁Слоб	-10.5158
▁Енглеск	-10.5162
▁Затим	-10.517
▁какве	-10.5171
јтив	-10.5179
▁задовољство	-10.518
▁поклони	-10.5182
▁двије	-10.5183
сваја	-10.5191
ОВИ	-10.5194
▁слични	-10.5194
▁сопствено	-10.5197
▁киш	-10.5208
глашен	-10.521
звук	-10.5211
уобичајен	-10.5214
▁социјалне	-10.5216
▁чул	-10.5226
▁почне	-10.5227
▁читаоци	-10.5227
▁Сед	-10.523
Њујорк	-10.5232
▁учествују	-10.5232
хрватско	-10.5232
▁појм	-10.5238
енз	-10.5238
▁првенство	-10.5241
▁осуђен	-10.5241
▁уништава	-10.5241
председниц	-10.5243
▁економске	-10.525
▁Русијом	-10.525
Недељ	-10.525
▁истинск	-10.5252
▁Алекси	-10.5257
▁категорији	-10.5258
▁отворе	-10.5259
▁негде	-10.5262
▁Твој	-10.5264
▁постати	-10.5267
▁Мак	-10.5268
вођен	-10.527
изму	-10.5279
▁лете	-10.5279
зму	-10.5282
▁деценија	-10.5284
▁Мирослав	-10.5285
▁морате	-10.5287
!!!	-10.5294
▁оштр	-10.5295
▁наведено	-10.5295
▁стаз	-10.5308
▁Турске	-10.5315
▁поена	-10.5318
▁тврде	-10.5319
информацион	-10.532
КОН	-10.5321
▁лични	-10.5323
▁Румуниј	-10.5338
ологију	-10.5342
канцелар	-10.5346
▁страници	-10.5357
▁успела	-10.5361
▁радног	-10.5362
тивне	-10.5362
▁пилот	-10.5364
ЂЕ	-10.5365
▁Сергеј	-10.5365
▁формирања	-10.5366
▁делом	-10.5367
Буди	-10.537
▁Црвена	-10.537
спон	-10.5373
▁Њихов	-10.5374
▁направљен	-10.5375
▁прозор	-10.5377
▁Сектор	-10.5378
▁објављује	-10.5378
▁просвете	-10.5378
▁синдикат	-10.5383
▁Кијев	-10.5389
▁пројекту	-10.539
духов	-10.5391
▁судија	-10.5392
овца	-10.5399
▁Јанковић	-10.54
▁земљо	-10.5401
▁Позив	-10.541
▁фотограф	-10.541
рађује	-10.5413
▁Хрвати	-10.5416
▁националног	-10.5416
▁Радован	-10.5417
административн	-10.5418
вољно	-10.542
▁Стефановић	-10.5423
▁Шар	-10.5424
▁гласова	-10.5427
▁жртва	-10.5427
▁одржати	-10.5427
▁последице	-10.5427
▁укус	-10.5428
▁Берлин	-10.5429
▁страних	-10.5429
▁студијск	-10.5436
▁контра	-10.5442
▁послат	-10.5444
штво	-10.5446
ношења	-10.5446
без	-10.5448
црвен	-10.5449
▁учинити	-10.545
▁великој	-10.5454
▁Скупштина	-10.5454
▁најстариј	-10.5455
ТЕР	-10.5459
влада	-10.5459
▁генер	-10.5463
▁одавно	-10.5463
▁банка	-10.5463
▁војску	-10.5466
мерен	-10.5468
▁одређени	-10.5471
▁инф	-10.5472
▁Максим	-10.5474
▁Јавни	-10.5474
▁највећих	-10.5474
▁првој	-10.5479
▁ухапшен	-10.5481
▁лето	-10.5491
после	-10.5494
▁појача	-10.55
▁Павле	-10.5505
▁јужно	-10.551
▁Италија	-10.5518
ирала	-10.5521
▁анд	-10.5523
▁ваздушн	-10.5535
▁славу	-10.5546
▁Радуј	-10.5548
▁таквих	-10.5549
НИКА	-10.5549
▁уочи	-10.555
▁профил	-10.5554
▁завршава	-10.5557
▁продају	-10.5558
▁повећање	-10.5564
▁продаје	-10.5565
▁дејств	-10.5571
▁спољашњ	-10.5572
штина	-10.5573
▁следи	-10.5579
▁додатно	-10.5579
▁тачка	-10.558
▁списак	-10.5581
▁изграђен	-10.5581
балканск	-10.5582
▁пољопривреде	-10.5584
буд	-10.559
▁цену	-10.5592
▁Живот	-10.5602
▁баве	-10.5603
▁поклон	-10.5606
▁смер	-10.5607
▁пожар	-10.5607
▁апликације	-10.5608
▁Ђорђевић	-10.5609
▁Мајк	-10.561
Србија	-10.5611
▁матичн	-10.5616
▁примети	-10.5623
][	-10.5625
▁брига	-10.5626
▁Јерусалим	-10.5626
▁упркос	-10.5626
▁васпитања	-10.5629
реж	-10.5629
▁специфичн	-10.5636
▁генерације	-10.5646
▁Павловић	-10.5654
трајн	-10.5655
▁Великог	-10.5656
▁животиња	-10.5657
▁писање	-10.5657
▁запослени	-10.5659
▁каква	-10.566
▁Партизан	-10.5663
▁Постоји	-10.5664
ИЈИ	-10.5668
▁социјални	-10.5668
▁предавања	-10.567
▁Андрић	-10.5671
▁изложен	-10.5672
▁митрополит	-10.5672
▁Ђурић	-10.5678
похвал	-10.5678
▁искр	-10.5681
Академиј	-10.5682
онтрол	-10.5682
▁Род	-10.5688
▁регион	-10.5691
НАТО	-10.5692
▁аутобус	-10.5692
▁обави	-10.5693
▁тамн	-10.5694
▁зграда	-10.5701
▁Тадић	-10.5706
▁Побед	-10.5715
▁сопствени	-10.5718
▁ефекат	-10.5718
▁привреде	-10.5718
▁Народна	-10.5719
▁прикључ	-10.5719
безбедносн	-10.572
▁састоји	-10.5724
памти	-10.5724
▁мајке	-10.5726
▁Резултат	-10.5728
▁позвао	-10.5728
▁Централн	-10.5737
▁Москва	-10.5738
струч	-10.5741
▁Петров	-10.5746
▁микро	-10.5755
▁тхе	-10.5761
▁тачн	-10.5762
▁Историја	-10.5766
▁састанку	-10.5774
▁дужности	-10.5781
▁укључен	-10.5785
▁најбољих	-10.5793
▁америчког	-10.5798
енерг	-10.58
▁одељења	-10.5803
▁критеријум	-10.5811
мушкарац	-10.5811
▁операције	-10.5814
▁Милен	-10.582
▁милост	-10.5822
▁Азиј	-10.5823
брањен	-10.5828
▁мушк	-10.5828
▁желимо	-10.5831
▁Време	-10.5832
чица	-10.5832
▁мисле	-10.5835
▁писма	-10.5837
▁кошта	-10.5842
▁професионални	-10.5842
▁земљишта	-10.5847
▁бизнис	-10.5848
▁Цариград	-10.5848
▁становништво	-10.5858
▁упућен	-10.5858
▁Хер	-10.5859
▁Бој	-10.5867
▁утиче	-10.587
▁финансија	-10.5876
▁Многи	-10.588
▁државног	-10.5881
▁исказ	-10.5882
▁буди	-10.5882
▁ваздухоплов	-10.5886
▁целе	-10.5889
▁сумње	-10.5891
▁предложи	-10.5892
▁именом	-10.5893
▁Владика	-10.5894
енгл	-10.5895
▁концепт	-10.5895
▁Гол	-10.5896
ТУР	-10.5897
▁изведен	-10.5899
исати	-10.5905
▁ставове	-10.5906
▁националних	-10.5911
▁Покрајинск	-10.5914
▁ситуацији	-10.5914
НОСТИ	-10.5915
▁манифест	-10.592
▁Хвала	-10.5921
▁Источно	-10.5927
▁присуству	-10.5933
▁случајевима	-10.5933
▁борави	-10.5933
▁истине	-10.5937
ТР	-10.5946
▁односима	-10.5949
▁светло	-10.5955
▁савлада	-10.596
▁Шпаниј	-10.5962
▁преузети	-10.5963
▁максимал	-10.5971
▁функције	-10.5971
Кос	-10.5971
▁епи	-10.5975
▁какви	-10.5976
сигурн	-10.5977
▁баца	-10.5978
▁Херцеговини	-10.598
▁изјава	-10.5982
▁манифестација	-10.5982
▁никако	-10.5983
свој	-10.5984
▁приоритет	-10.599
здрав	-10.5995
▁освојио	-10.5998
▁Француској	-10.5999
▁племе	-10.6001
▁Мр	-10.6013
▁Давид	-10.6017
олошко	-10.6017
▁лиценц	-10.6023
против	-10.6024
▁набавка	-10.6038
▁партиј	-10.6042
земаљск	-10.6047
▁подршка	-10.6047
▁постављање	-10.6048
несите	-10.605
▁развијен	-10.6053
▁осети	-10.6053
▁нареди	-10.6058
▁зависности	-10.6062
ИЈУ	-10.607
▁Мос	-10.608
▁кризе	-10.6089
ијевић	-10.609
▁пролази	-10.6092
▁проучава	-10.6095
▁питањима	-10.6098
▁странци	-10.61
▁ваља	-10.61
▁друштвени	-10.6102
▁такмичар	-10.6104
▁парохиј	-10.6114
▁стабилност	-10.6118
▁гости	-10.6123
ЕСТ	-10.6124
▁онако	-10.6125
меће	-10.613
▁класи	-10.6131
▁Гоогле	-10.6133
▁Захтев	-10.6133
▁Бојан	-10.6137
▁МУП	-10.6138
▁превише	-10.6153
▁обзир	-10.6155
▁Проф	-10.6159
РАТ	-10.6161
▁талас	-10.6166
ФЕ	-10.6167
▁двојиц	-10.6168
▁употреби	-10.6171
▁Македоније	-10.6177
Др	-10.6178
▁укупн	-10.6181
▁тенис	-10.6182
▁проглашен	-10.6183
▁признање	-10.6185
▁оконча	-10.6188
▁дигиталн	-10.6191
▁Илић	-10.6192
ГУ	-10.6193
▁Онлине	-10.6193
▁подели	-10.6195
Евро	-10.6197
▁саопштио	-10.62
▁софтвер	-10.62
нвеститор	-10.6202
▁локалних	-10.6204
ИП	-10.6204
▁вашем	-10.6204
▁природи	-10.6218
▁северно	-10.6223
црногорск	-10.6224
▁објекти	-10.6227
онсулт	-10.6228
▁захвали	-10.6231
▁позоришта	-10.6239
▁какву	-10.624
▁присуствовали	-10.6242
▁одбрани	-10.6242
▁небеск	-10.6251
▁усавршава	-10.6259
▁СРБИЈЕ	-10.6269
▁стварања	-10.6277
▁Свака	-10.6282
▁Луци	-10.6288
▁литургиј	-10.6288
▁државних	-10.629
▁Видео	-10.6292
цхат	-10.631
▁трговине	-10.6317
▁имовине	-10.6318
▁заробљен	-10.6319
▁сцени	-10.632
сока	-10.6325
▁Сремск	-10.6327
▁Митрополит	-10.6327
▁мјеста	-10.6328
▁Турци	-10.633
РАН	-10.6339
држали	-10.6339
ИД	-10.634
▁Америци	-10.6347
▁апликација	-10.6357
▁слој	-10.6365
▁ранг	-10.6367
▁главно	-10.6368
▁Предсједник	-10.6376
НОМ	-10.6376
▁урбан	-10.6381
Српско	-10.6388
▁знатно	-10.6393
▁сјај	-10.6397
УН	-10.6397
▁важан	-10.6399
▁планина	-10.64
▁музике	-10.6406
злоупотреб	-10.6406
▁одржив	-10.6407
савршен	-10.6409
▁Манастир	-10.6416
▁просто	-10.6417
▁носе	-10.6418
▁трак	-10.642
▁порекла	-10.6426
ИЛИ	-10.6427
▁Николе	-10.643
▁вежба	-10.6436
▁регистрован	-10.6438
▁звезде	-10.6442
▁примје	-10.6446
▁самостално	-10.6446
▁презиме	-10.645
▁квар	-10.645
▁станице	-10.6463
СКОГ	-10.6469
▁погледајте	-10.6471
▁противник	-10.6472
Образ	-10.6472
▁Света	-10.6475
▁муж	-10.6476
клон	-10.648
▁достави	-10.648
▁учења	-10.6482
▁важи	-10.6486
▁песма	-10.6486
▁Могу	-10.6486
▁пољопривредни	-10.6487
веж	-10.6491
▁Пројекат	-10.6495
▁радове	-10.6496
▁подношење	-10.6496
▁туризма	-10.6496
еванђељ	-10.6496
▁прослави	-10.6499
босанск	-10.65
▁Стари	-10.6503
▁временск	-10.6507
▁просторијама	-10.6515
▁радници	-10.6516
▁прошири	-10.6516
▁одлази	-10.6517
▁победа	-10.6519
достојн	-10.6523
▁излази	-10.6526
▁покаже	-10.6527
▁умро	-10.653
ЋИ	-10.6535
▁Чет	-10.6536
хвала	-10.6538
▁свакој	-10.6538
▁зуб	-10.6541
▁личност	-10.6542
▁високог	-10.6545
▁изражава	-10.6546
▁Поводом	-10.6546
▁Коментар	-10.6551
писали	-10.6558
▁енглеск	-10.6572
▁повећава	-10.6572
▁Вуч	-10.6574
▁Андреј	-10.6576
▁јужн	-10.6582
▁рецепт	-10.6582
▁партизан	-10.6586
▁изјаве	-10.6587
мудр	-10.6588
▁Ивановић	-10.6593
▁Управо	-10.6594
▁мртав	-10.6596
▁наставак	-10.6598
▁Њен	-10.6602
▁местима	-10.6606
▁СТА	-10.6607
▁владар	-10.6608
▁претвори	-10.661
▁цене	-10.6611
▁штету	-10.6612
▁мјесец	-10.6616
ријум	-10.662
▁физички	-10.6623
ХА	-10.6625
▁здравствено	-10.6626
▁линије	-10.6636
▁битно	-10.6641
Пријав	-10.6644
▁Чланци	-10.6646
▁писао	-10.6652
ВОД	-10.6656
▁бугарск	-10.6657
▁Степ	-10.6665
▁сигнал	-10.6666
▁Добр	-10.6668
▁Информ	-10.6671
фун	-10.6672
▁Приступљено	-10.6677
▁Ученици	-10.6678
▁правцу	-10.668
▁пројектима	-10.6682
▁господар	-10.6683
▁глава	-10.6684
▁врсту	-10.6688
▁таквим	-10.6688
▁једноставн	-10.669
Београд	-10.6692
▁претње	-10.6695
јон	-10.6696
▁отишао	-10.6698
језичк	-10.6698
▁смисл	-10.6704
▁стратешке	-10.6706
▁хттпс	-10.6707
▁понашање	-10.6707
▁Амбасад	-10.6727
владин	-10.673
▁утисак	-10.6738
▁најлепш	-10.6738
хол	-10.6738
▁одакле	-10.6743
▁Одговор	-10.6744
▁обавештења	-10.6748
▁традиционално	-10.6753
▁вредно	-10.6755
истраживач	-10.6759
▁благ	-10.6761
▁Ирак	-10.6763
Гор	-10.6767
▁усвојен	-10.6769
бијен	-10.6775
▁Европу	-10.6779
▁Немачкој	-10.6781
▁разлика	-10.6782
▁друже	-10.6787
▁мишљењу	-10.6789
ификован	-10.6791
▁Стога	-10.6792
▁слава	-10.6796
▁адвокат	-10.6799
▁објекта	-10.6799
ИЦА	-10.68
▁немогуће	-10.6801
▁креће	-10.6806
▁Врањ	-10.6807
▁глуп	-10.6817
истичка	-10.6817
▁срећу	-10.6819
▁донео	-10.6819
љује	-10.682
▁донесе	-10.682
▁Људи	-10.682
▁бодова	-10.6823
▁Дрин	-10.6824
рођен	-10.6825
▁преузима	-10.6833
бијање	-10.6835
рушен	-10.6837
▁округу	-10.684
паљен	-10.6841
▁тестира	-10.6848
▁Доналд	-10.6851
▁гарант	-10.6853
▁подељен	-10.6861
▁војних	-10.6862
▁стотина	-10.6863
писати	-10.6863
▁Предлог	-10.687
▁потпредседник	-10.6871
члан	-10.6874
▁момент	-10.6885
▁послије	-10.6889
▁управљања	-10.6894
ИК	-10.6897
▁свјетск	-10.6899
▁дечак	-10.69
▁унапређење	-10.6902
писано	-10.6909
дубок	-10.6911
▁Спомен	-10.6914
▁ограничен	-10.6924
мађарск	-10.6926
▁анал	-10.6926
▁прописа	-10.6928
▁социјално	-10.6928
▁примени	-10.6938
▁богослов	-10.6939
вршава	-10.6943
▁набавку	-10.6945
▁Србијом	-10.6945
▁процени	-10.6946
▁јавни	-10.6947
▁категорија	-10.6955
▁Министарству	-10.6958
▁институцијама	-10.6959
▁древн	-10.6965
▁кухињ	-10.6966
▁рањен	-10.6967
▁њеним	-10.6968
▁почетн	-10.6975
књиж	-10.6978
▁ресторан	-10.6986
▁представе	-10.6987
▁Тачи	-10.6992
традиционал	-10.6992
▁Исток	-10.6993
▁Студиј	-10.7003
очекиван	-10.7007
▁поштује	-10.7007
▁пројекте	-10.7013
▁додели	-10.7013
▁позоришн	-10.7017
▁спровођење	-10.7017
▁следећих	-10.7025
▁корен	-10.7026
▁жалост	-10.7029
▁представницима	-10.703
▁општ	-10.7041
▁дивн	-10.7051
НД	-10.7056
▁праксе	-10.706
умрл	-10.7063
▁обрачун	-10.7065
слика	-10.7066
▁омиљен	-10.7073
▁лицу	-10.7081
▁обичн	-10.7087
монт	-10.7088
▁досадашњ	-10.7092
▁Отац	-10.7097
▁понашања	-10.7099
▁рекли	-10.7099
▁тренутак	-10.7102
▁одбаци	-10.711
▁НАД	-10.7111
▁храну	-10.7113
▁Клуб	-10.7115
▁Америке	-10.7123
▁мошти	-10.7126
▁међународних	-10.7131
▁слова	-10.7133
▁Фестивал	-10.7134
Аустрали	-10.7135
▁одлично	-10.7136
▁побје	-10.7144
▁мјесто	-10.7145
▁мастер	-10.7145
„	-10.7147
▁десило	-10.7151
Његош	-10.7155
истичко	-10.7155
▁Херцег	-10.7164
нпр	-10.7165
▁ученик	-10.717
▁распад	-10.7171
▁створен	-10.7175
▁пронађен	-10.7175
▁хиљаде	-10.7176
▁Стојановић	-10.7176
▁Директор	-10.7187
▁француско	-10.7188
▁васкрс	-10.7188
уметнички	-10.7199
ИСТ	-10.7203
▁малих	-10.7203
▁хлеб	-10.7211
▁Космет	-10.7211
заборав	-10.7214
▁састанка	-10.7216
▁екипе	-10.7219
▁помиње	-10.7222
▁Странице	-10.7225
▁рођења	-10.723
цеп	-10.7237
▁јефтин	-10.7239
▁политичког	-10.7239
▁идеологиј	-10.724
▁озбиљни	-10.7241
класичн	-10.7246
▁обим	-10.7251
▁Објављено	-10.7251
▁смисао	-10.7252
▁стигао	-10.7263
▁лекови	-10.7263
▁међународног	-10.7266
▁Лаз	-10.7272
▁заједничке	-10.7273
▁досад	-10.7278
▁пуца	-10.7282
▁посебан	-10.7284
▁Соко	-10.7291
▁културног	-10.7292
▁усмерен	-10.7295
▁Градске	-10.7304
▁одржавања	-10.7304
итис	-10.7306
спот	-10.7308
▁понови	-10.7316
▁ослобађа	-10.7316
▁бројем	-10.7318
▁РАЗ	-10.7319
▁очију	-10.732
▁звон	-10.7325
▁приватиз	-10.7335
легитим	-10.7338
▁Миодраг	-10.7338
▁наставни	-10.734
▁наставник	-10.7356
▁Предраг	-10.7356
ФОТО	-10.736
▁мирис	-10.736
▁акцију	-10.7362
▁казне	-10.7362
звођач	-10.7362
▁успели	-10.7368
▁олакша	-10.737
▁политици	-10.7371
информ	-10.7375
▁Пријавит	-10.7376
Срећ	-10.7378
▁менаџмент	-10.7381
повест	-10.7381
плов	-10.7382
▁испуњен	-10.7383
▁опрема	-10.7383
▁деценије	-10.7389
▁архитект	-10.739
▁Земун	-10.7393
▁дивизиј	-10.7395
▁стадион	-10.7404
▁парламентар	-10.7405
▁поједини	-10.7405
страш	-10.7406
▁Српског	-10.7411
▁истоку	-10.7413
▁искључен	-10.7414
▁наредних	-10.7416
безбедн	-10.7417
▁спреман	-10.7421
▁потписан	-10.7424
▁запошљавање	-10.7425
▁Регион	-10.7425
▁поруку	-10.7426
фф	-10.743
▁путовања	-10.7436
▁телесн	-10.7436
ређивање	-10.7437
▁Американци	-10.7437
ивач	-10.7443
▁упутств	-10.7444
▁владајућ	-10.7445
творен	-10.7445
▁пишу	-10.7445
▁Италији	-10.7447
▁америчких	-10.7455
хатс	-10.7457
▁конференција	-10.7459
▁преузимања	-10.746
▁забрањено	-10.7461
▁двора	-10.7461
▁праведн	-10.7466
▁Иначе	-10.7473
▁пракси	-10.7474
▁достојанств	-10.748
▁врт	-10.748
▁канон	-10.7481
▁енглеском	-10.7481
школско	-10.7484
▁студентима	-10.7484
▁Јавно	-10.7486
▁помисли	-10.7489
▁људске	-10.7491
▁обележен	-10.7491
▁лиге	-10.7493
▁израду	-10.7494
Потреб	-10.75
▁уметност	-10.75
▁индивидуал	-10.7502
▁песама	-10.7502
▁Павла	-10.7502
▁Сел	-10.7504
▁евентуалн	-10.7513
▁индустрије	-10.7513
▁благодат	-10.7521
▁викенд	-10.7524
▁колективн	-10.7535
▁санкција	-10.7536
▁јунак	-10.7541
▁упита	-10.7544
▁најважнији	-10.7546
▁поремећај	-10.7557
▁припреме	-10.7557
▁укључује	-10.7558
▁медије	-10.7559
▁економије	-10.756
▁обуку	-10.756
▁фази	-10.7563
▁горњ	-10.7566
▁убрза	-10.7572
Светозар	-10.7577
▁стварност	-10.7581
бод	-10.7583
▁традиције	-10.7591
▁средњих	-10.7591
▁структура	-10.7591
▁покренут	-10.7591
▁шпанск	-10.7592
▁Посебно	-10.76
▁вечери	-10.7606
▁наводе	-10.7611
▁децом	-10.7612
▁подручје	-10.7613
▁разлике	-10.7614
▁насиље	-10.7615
▁чудн	-10.7618
▁потрошач	-10.7624
▁Богдан	-10.7631
▁висини	-10.7636
стратешк	-10.7639
▁кува	-10.7643
▁Срп	-10.7643
▁победу	-10.7648
▁изради	-10.7653
▁Пресвете	-10.7658
▁Нисам	-10.7658
▁пријаву	-10.7658
▁проб	-10.7658
▁интересантн	-10.766
ОРИ	-10.766
▁Мор	-10.7662
▁претвара	-10.7669
▁читање	-10.7673
▁америчкој	-10.7673
▁отварање	-10.7674
▁председничк	-10.768
трговинск	-10.7682
▁рано	-10.7689
▁појас	-10.7695
▁спада	-10.7696
▁затвора	-10.7703
▁целу	-10.7707
▁надлежности	-10.771
▁крајње	-10.7712
▁радионица	-10.7714
▁међусобно	-10.7716
▁многобројн	-10.7717
▁кућн	-10.7729
▁посебне	-10.7736
▁предстојећ	-10.7736
храњен	-10.7737
▁Правн	-10.7742
▁ставови	-10.7745
необичн	-10.7745
▁Сомбор	-10.7748
▁изградње	-10.7748
▁средствима	-10.7748
▁формирање	-10.7757
▁Отворен	-10.7759
▁вештине	-10.7759
▁фудбалск	-10.7765
▁представа	-10.7766
▁написан	-10.7767
▁чест	-10.777
▁Јов	-10.778
▁НИС	-10.7783
▁саветник	-10.7786
▁прошлог	-10.7786
▁храни	-10.779
▁аспект	-10.7793
▁младић	-10.7794
џић	-10.7796
▁препоручује	-10.7804
▁подигнут	-10.7804
▁Спас	-10.7805
▁догађа	-10.781
▁обележи	-10.7812
▁сећања	-10.7813
▁потребне	-10.7816
▁умре	-10.7826
▁Друштво	-10.7827
▁значајан	-10.7832
▁извршен	-10.7835
▁целокупн	-10.7841
▁делује	-10.785
▁Обавештење	-10.785
▁фабрика	-10.785
обавештајн	-10.7851
▁седница	-10.7853
▁хтео	-10.7853
▁крун	-10.7854
▁забрани	-10.7854
▁Фацебоок	-10.7861
▁покај	-10.7869
▁изградњи	-10.7873
▁операција	-10.7878
НИЈЕ	-10.7879
Крагујевац	-10.7884
▁оптужб	-10.7884
▁здравствени	-10.7885
ВЛА	-10.7886
▁цвет	-10.7888
▁свуда	-10.7893
▁седиште	-10.7897
▁Хар	-10.7898
▁Извор	-10.7899
▁Српску	-10.79
▁случајева	-10.7903
▁Скупштини	-10.7907
▁Милован	-10.7908
▁догодило	-10.7913
▁слободни	-10.7914
▁пронаћи	-10.792
ЕЛЕ	-10.7921
▁Решење	-10.7925
▁Изложб	-10.793
▁Швајцарск	-10.793
▁учествовао	-10.793
▁истакнут	-10.793
познавање	-10.7933
писани	-10.7938
врсн	-10.7944
▁апарат	-10.7951
▁сличне	-10.7954
▁одговарајући	-10.7954
▁порекло	-10.7954
▁површине	-10.7965
▁захтјев	-10.7976
▁активност	-10.7983
полит	-10.7985
▁категорије	-10.7988
▁Војислав	-10.7988
▁Игор	-10.7988
▁пећи	-10.7996
▁докумената	-10.7999
▁позивање	-10.8
годишњег	-10.8002
▁прилике	-10.8003
▁Савић	-10.8011
▁академије	-10.8011
▁Споразум	-10.8011
▁делимично	-10.8011
▁функција	-10.8011
▁изразио	-10.8013
ографија	-10.8013
▁цени	-10.8014
▁одобри	-10.8017
▁тридесет	-10.8018
▁прогон	-10.802
▁Црвене	-10.8021
▁Немци	-10.8035
▁Покрет	-10.8035
▁Карл	-10.8039
▁Сирије	-10.8039
▁Градско	-10.804
▁војног	-10.804
јевреј	-10.8041
▁личне	-10.8042
▁карте	-10.8044
▁генерација	-10.8049
▁решавање	-10.8056
▁Југославији	-10.8058
▁драма	-10.8061
метар	-10.8063
▁сведочи	-10.807
▁позадин	-10.807
ЦД	-10.8076
▁прописан	-10.8076
▁међувремену	-10.8081
континент	-10.8081
▁затвара	-10.8081
▁Совјетск	-10.8081
▁инвалид	-10.8081
▁Свечан	-10.8082
▁Спорт	-10.8089
▁ретко	-10.8093
Рад	-10.8097
хлад	-10.8101
▁субјект	-10.8101
▁чуо	-10.8102
▁неутрал	-10.8105
АЈУ	-10.8114
▁Петер	-10.8114
ЕТА	-10.8114
▁линија	-10.8118
изашл	-10.8121
недељн	-10.8122
▁суштинск	-10.8123
изује	-10.8124
план	-10.8125
▁Обрадовић	-10.8128
▁срцу	-10.813
лизован	-10.8132
▁Роман	-10.8134
▁циљеви	-10.8136
способн	-10.8137
годишња	-10.8139
▁комуналн	-10.814
▁Основ	-10.8143
▁војник	-10.815
▁раме	-10.8151
троп	-10.8153
▁заштитни	-10.8163
▁либерал	-10.8164
УР	-10.8166
▁спој	-10.8168
▁Ђурђ	-10.8169
УЗ	-10.8173
▁веш	-10.818
▁посвети	-10.8181
▁страдања	-10.8182
▁смањење	-10.8187
▁међународни	-10.8188
▁коментарима	-10.8193
▁предавање	-10.8197
▁Руссиа	-10.8199
▁инсистира	-10.8199
▁високе	-10.8199
▁Постоје	-10.82
▁претходни	-10.8201
▁подстицај	-10.8203
▁наредне	-10.8206
▁крајева	-10.8207
▁баци	-10.8209
▁најважније	-10.821
▁Следећи	-10.8222
колачиће	-10.8223
▁притиска	-10.8224
▁судск	-10.8227
узимање	-10.8228
▁алкохол	-10.8234
републичк	-10.8234
▁формат	-10.8237
▁некако	-10.824
▁капије	-10.8259
▁Назив	-10.8262
▁комитет	-10.8272
▁тргова	-10.8279
индо	-10.8279
▁Филозофск	-10.8282
▁тржиште	-10.8282
▁Лавров	-10.8282
▁владавине	-10.8282
▁изгради	-10.8283
▁Друга	-10.8283
▁дечј	-10.829
▁вртић	-10.8291
▁новинарима	-10.8292
▁тенк	-10.8293
▁квадрат	-10.8294
▁страницу	-10.8294
▁обнови	-10.8296
▁ефикасност	-10.8298
вукао	-10.8302
▁вакцин	-10.8306
▁главног	-10.8309
▁губитк	-10.831
▁откривен	-10.8311
▁боји	-10.8311
плива	-10.8313
▁ШКОЛ	-10.8314
▁Божје	-10.8316
▁Исламск	-10.8318
▁скупштина	-10.8319
територијалн	-10.8325
Други	-10.8325
▁надам	-10.8326
▁приватни	-10.8336
▁сјајн	-10.8339
▁Служба	-10.8342
освећен	-10.8346
▁турски	-10.8348
интегра	-10.8353
▁наставку	-10.8355
▁Солун	-10.8361
▁функцију	-10.8366
▁Рођен	-10.8372
▁електронски	-10.8374
▁породицу	-10.8378
▁САНУ	-10.8381
цивилиз	-10.8389
▁новости	-10.8393
▁просечн	-10.8393
▁Мер	-10.8394
▁овакво	-10.8395
▁дошла	-10.8396
▁потребан	-10.8396
▁Сун	-10.8398
▁владика	-10.8399
▁Економск	-10.8403
▁кћер	-10.8403
▁грађе	-10.841
▁верују	-10.841
▁чланство	-10.8411
СЛАВ	-10.8413
техничко	-10.8414
▁пријављен	-10.8417
ангел	-10.8418
▁Америчке	-10.8424
▁Човек	-10.8426
▁помоћник	-10.843
критичк	-10.8431
▁ПОД	-10.8433
▁Писм	-10.8434
▁школски	-10.8438
▁црвено	-10.8439
▁групу	-10.8439
слуга	-10.8445
▁пројекти	-10.8449
Зелен	-10.8449
▁Хитлер	-10.845
▁кабинет	-10.845
▁санкције	-10.8451
ОСТ	-10.8458
▁произве	-10.8459
▁функциониса	-10.8462
▁вечерас	-10.8464
▁тренинг	-10.8465
▁Какв	-10.8468
▁предвиђа	-10.847
▁царства	-10.8474
▁здравствене	-10.8474
▁добру	-10.8476
насилн	-10.8482
▁вожњ	-10.8488
▁сумња	-10.8493
▁покрива	-10.8497
▁говорећи	-10.8505
▁летњ	-10.8506
технички	-10.8509
▁дипломира	-10.8511
амби	-10.8512
▁Лет	-10.8513
▁Македонији	-10.8516
▁смештен	-10.852
▁пораст	-10.8521
▁песму	-10.8523
▁фаза	-10.8524
▁појаве	-10.8525
▁форми	-10.8525
▁Статут	-10.8526
▁Боже	-10.8527
клоњен	-10.8533
▁Грчке	-10.8534
▁појаву	-10.8536
▁Много	-10.8538
▁убрзо	-10.854
▁станова	-10.8545
▁интерн	-10.8551
▁повратак	-10.856
▁анализа	-10.8561
Више	-10.8572
држала	-10.858
▁Јавна	-10.8584
▁дијаспор	-10.8585
▁Вулин	-10.8585
▁империј	-10.8585
▁примене	-10.8587
▁среће	-10.8587
▁Сребрен	-10.8595
▁Украјина	-10.8597
▁епархиј	-10.8597
▁Премијер	-10.8597
▁посјети	-10.8598
▁речник	-10.8604
значај	-10.8607
▁прославља	-10.8609
▁Право	-10.8614
парат	-10.8619
▁успостави	-10.862
▁територија	-10.8626
писала	-10.8631
▁Оливер	-10.8635
▁искрено	-10.8651
▁гостију	-10.8651
▁заузима	-10.8653
▁означава	-10.8658
▁стручњаци	-10.8658
▁чињеницу	-10.8659
▁учешћа	-10.8659
▁сведоче	-10.8661
▁штампан	-10.8663
▁Турска	-10.8663
исања	-10.8665
▁лежи	-10.867
▁руководство	-10.8671
географск	-10.8673
▁Младић	-10.8676
▁тешке	-10.8681
финансијско	-10.8683
▁СРБИМА	-10.8683
▁имовину	-10.8683
▁мученик	-10.8686
враћа	-10.8689
▁Источн	-10.8689
▁циљева	-10.8693
▁вежбе	-10.8696
▁пронађе	-10.8698
▁рецимо	-10.8705
▁предузеће	-10.8708
▁праћење	-10.8708
▁спрат	-10.8708
▁законск	-10.8717
▁некакв	-10.8719
▁математике	-10.8721
▁Ковачевић	-10.8721
▁књижевник	-10.8725
латералн	-10.8727
▁уџбеник	-10.8733
▁дужност	-10.8739
▁мајстор	-10.8739
▁оптужен	-10.8746
▁писања	-10.8747
▁пензионер	-10.875
▁психолог	-10.8752
▁додир	-10.8756
▁ракета	-10.8758
▁нагласи	-10.8761
▁понуде	-10.8761
«	-10.8767
▁дозвољава	-10.877
▁студира	-10.8771
▁друштвених	-10.8773
Кад	-10.8794
▁Москве	-10.8796
▁скупштини	-10.8796
▁Божији	-10.8797
▁прекину	-10.8797
▁Лист	-10.8798
▁Крајин	-10.8807
▁сигуран	-10.8808
▁анализе	-10.8808
Никад	-10.8809
▁задужен	-10.881
▁царство	-10.8811
▁НОВИ	-10.8812
Америчк	-10.8812
фск	-10.8812
▁конгрес	-10.8816
▁исход	-10.8819
▁аргумент	-10.8821
▁баштин	-10.8827
▁претходне	-10.8833
▁Карађорђевић	-10.8833
▁савезник	-10.8839
▁смештај	-10.884
комунистичк	-10.884
▁чланове	-10.8841
▁остатак	-10.8842
▁започет	-10.8847
▁наредном	-10.8848
измом	-10.8848
▁Станковић	-10.8852
▁царев	-10.8852
▁зимск	-10.8855
▁Научн	-10.8858
▁експерт	-10.8859
▁Великој	-10.8862
▁нисте	-10.8868
▁делатност	-10.8871
▁Андроид	-10.8871
▁експеримент	-10.8871
▁културне	-10.8871
▁кров	-10.8873
▁лед	-10.8883
▁аустријск	-10.8884
▁повређен	-10.8884
▁лекова	-10.8886
▁драмск	-10.889
Војвод	-10.8893
▁дечиј	-10.8899
▁наставници	-10.8903
Конференциј	-10.8909
▁Томислав	-10.8909
▁оштећен	-10.8909
▁организацију	-10.891
▁заврше	-10.8919
▁опозицион	-10.8922
▁заједници	-10.8923
▁сарадници	-10.8925
▁вештина	-10.8929
Желим	-10.8933
▁Насловна	-10.8935
▁површина	-10.8935
ољубив	-10.8938
Ствар	-10.8938
▁Истраж	-10.8946
јућег	-10.8957
▁заснива	-10.8966
▁равноправност	-10.8969
▁обаве	-10.8973
▁незаконит	-10.8973
плет	-10.8977
▁карактеристике	-10.8986
▁упозорава	-10.8986
НИЦИ	-10.8986
медицински	-10.8986
▁реализацију	-10.9001
▁станица	-10.9006
▁колач	-10.9006
▁ојача	-10.9013
▁редовни	-10.9014
франц	-10.9015
▁Екс	-10.9018
▁феномен	-10.9024
▁Уместо	-10.9024
▁Шешељ	-10.9024
▁постигнут	-10.9025
▁Меркел	-10.9025
▁промјен	-10.9025
▁онлајн	-10.9037
▁инструмент	-10.9037
▁проповед	-10.9038
▁савршено	-10.904
▁бело	-10.9043
▁објекат	-10.9045
▁психо	-10.9049
▁мјесту	-10.905
▁такву	-10.9052
пуњен	-10.9052
▁екран	-10.9063
▁спремна	-10.9063
▁игуман	-10.9067
▁Сребреници	-10.9077
▁структуре	-10.9089
▁тренд	-10.9096
▁густ	-10.9097
▁академске	-10.9102
▁Чита	-10.9108
▁врхов	-10.9112
▁поготово	-10.9114
▁овдје	-10.9116
зир	-10.9118
▁Друштва	-10.9127
▁албум	-10.9128
▁бицикл	-10.9129
▁трудили	-10.9137
▁утакмици	-10.914
▁најмлађ	-10.9141
▁градовима	-10.9142
▁врлин	-10.9143
▁Хришћан	-10.9153
▁греј	-10.9154
▁претходних	-10.9164
▁леђа	-10.9164
▁Бањалуци	-10.9166
▁пљачк	-10.9167
▁мноштв	-10.9168
▁уништен	-10.917
пољск	-10.9179
▁окупациј	-10.9183
▁једва	-10.9193
▁мору	-10.9197
▁погрешно	-10.9199
Електро	-10.9205
▁опремљен	-10.9206
▁Михајловић	-10.9206
▁важна	-10.9206
▁потребу	-10.9206
▁Урош	-10.9207
▁поезије	-10.9207
▁угрожава	-10.9219
ИТИ	-10.922
▁Тито	-10.922
▁динами	-10.9224
▁појединих	-10.9231
▁позориште	-10.9232
▁Гаврил	-10.9232
▁управу	-10.9232
▁заштита	-10.9233
уметничко	-10.9233
▁академски	-10.9245
▁нажалост	-10.9245
▁важност	-10.9245
▁шаље	-10.9246
▁европским	-10.9246
▁Милић	-10.9256
▁установи	-10.9262
▁осуди	-10.9269
▁Кроз	-10.9271
▁СССР	-10.9271
▁икада	-10.928
оригинал	-10.928
▁Вуков	-10.9282
▁истичу	-10.9288
▁Машин	-10.9289
▁Бањој	-10.9291
▁КОЈИ	-10.9298
▁главна	-10.9301
▁посета	-10.9303
ручује	-10.9304
▁обавести	-10.9304
▁опозиције	-10.9311
▁СДС	-10.9312
▁дјеце	-10.9315
▁глобално	-10.9315
▁Холанд	-10.9315
▁клик	-10.932
▁одржаће	-10.9324
▁Лоз	-10.9326
▁обуке	-10.9327
▁радикалн	-10.933
▁железничк	-10.9337
вековн	-10.934
срамот	-10.9341
ИЛА	-10.9342
▁Амфилохиј	-10.9351
▁култури	-10.9351
▁еколошк	-10.9352
▁међусобн	-10.9364
▁попису	-10.9371
▁документације	-10.9373
▁милијарде	-10.9377
▁Последњи	-10.9377
▁ситн	-10.938
▁одговарајуће	-10.9387
▁Ћи	-10.939
▁никакву	-10.939
▁позицију	-10.9391
▁пажљиво	-10.9391
▁Словена	-10.9394
СТВО	-10.9398
сљед	-10.9398
▁публици	-10.9404
миграната	-10.9404
▁постојање	-10.9404
нтелект	-10.9404
▁Данило	-10.9404
▁редитељ	-10.9406
▁етно	-10.941
▁Категорија	-10.9417
▁тржишта	-10.9417
техничке	-10.9418
▁губитак	-10.9421
јавну	-10.9436
човеч	-10.944
АЦИЈЕ	-10.9441
▁глави	-10.9442
▁локације	-10.9444
▁наслеђе	-10.9444
▁склопу	-10.9444
▁реалност	-10.9449
ТРО	-10.9453
▁Драж	-10.9454
▁доступни	-10.9454
▁БОСНИ	-10.9457
▁кршење	-10.946
именован	-10.9462
▁контактира	-10.9462
реал	-10.9465
▁старије	-10.9479
▁радионице	-10.948
▁Краљевине	-10.9484
▁Филм	-10.9485
▁примену	-10.9486
▁реализован	-10.9487
▁комунисти	-10.9495
хрон	-10.9497
▁међународну	-10.9498
▁политичку	-10.9499
финансира	-10.9499
▁нормално	-10.9506
▁измене	-10.9508
▁дјело	-10.951
▁прилагођен	-10.9511
▁Врховн	-10.9511
▁сврхе	-10.9511
▁стуб	-10.9515
▁текућ	-10.9521
▁Михаиловић	-10.9524
▁стопа	-10.9524
▁суочава	-10.9525
▁сајтова	-10.9532
▁опсе	-10.9544
▁пласира	-10.9554
▁инвестиције	-10.9565
▁пустињ	-10.9575
▁територију	-10.9579
▁поседује	-10.9584
▁МИЛ	-10.959
▁технике	-10.9592
▁поменути	-10.9594
▁молитва	-10.9606
▁савремене	-10.9606
▁складишт	-10.9607
▁Сматра	-10.9607
▁КОМИСИЈА	-10.962
▁одржао	-10.962
ГОВОР	-10.962
Кошар	-10.9621
ступање	-10.9631
▁Зрењанин	-10.9633
▁релевантн	-10.9633
▁снабдева	-10.9633
Прочита	-10.9635
▁терориста	-10.9637
образовн	-10.9641
▁предшколск	-10.9642
▁Специјалн	-10.9647
>	-10.9654
▁хапшењ	-10.9661
▁Званичн	-10.9661
▁средини	-10.9663
▁Вал	-10.967
▁кошаркаш	-10.9674
▁Апостол	-10.9674
▁рукопис	-10.9674
▁девојка	-10.9674
▁Одлуке	-10.9674
▁ракетн	-10.9675
▁погодн	-10.9677
▁жељу	-10.9682
▁реализује	-10.9686
▁средство	-10.9693
▁конференције	-10.9694
▁ХЕРЦЕГОВИНИ	-10.9702
▁издваја	-10.9702
▁ЗЛОЧИНИ	-10.9705
▁цењени	-10.9705
▁вук	-10.9706
▁укину	-10.9707
▁преговори	-10.9713
▁Бондстила	-10.9715
▁инцидент	-10.9715
▁шећер	-10.9717
▁трајно	-10.9724
▁католичк	-10.9729
▁Војводини	-10.9729
▁Трајање	-10.9729
▁Божји	-10.9731
▁Софиј	-10.9744
▁стручне	-10.9748
▁средину	-10.9749
једињен	-10.975
НОВО	-10.9753
Књижевн	-10.9757
▁Агенција	-10.9757
▁храна	-10.9765
▁пољима	-10.9765
▁глумац	-10.9766
▁стратешки	-10.9772
српски	-10.9775
▁одлучн	-10.978
▁Чешк	-10.978
▁околн	-10.9782
▁узети	-10.9785
▁позиције	-10.9785
сељени	-10.9793
▁Добродошли	-10.9798
▁трибунал	-10.9798
▁Помоћ	-10.9806
▁мржњ	-10.9806
игн	-10.9809
▁Већина	-10.9819
▁Надам	-10.9819
▁православна	-10.9827
▁последња	-10.9827
▁Мартин	-10.9836
словенски	-10.9839
▁професионално	-10.9839
▁Видовдан	-10.984
▁изгубљен	-10.984
РП	-10.9847
▁окружењу	-10.9854
▁иницијативу	-10.9868
▁Милица	-10.987
▁Чланак	-10.9876
▁Гору	-10.9879
▁Италије	-10.9882
▁насељу	-10.9884
ТОР	-10.9885
▁музички	-10.9885
▁Општинско	-10.9885
▁сведок	-10.9886
▁штаб	-10.9887
▁егз	-10.9889
▁затвори	-10.989
▁Јевреји	-10.9896
▁схаре	-10.9897
▁предводи	-10.9908
▁МЛАДИЋУ	-10.991
▁Метохију	-10.991
▁упозори	-10.991
смрт	-10.991
▁Истовремено	-10.9911
▁поновн	-10.9921
▁окупатор	-10.9923
▁Метод	-10.9924
▁овакве	-10.9924
▁добровољн	-10.9925
▁фигур	-10.9925
▁звањ	-10.9926
▁опција	-10.9928
▁адекватн	-10.9938
▁исприча	-10.9938
▁Пројект	-10.9938
▁ЈП	-10.994
▁верзија	-10.9941
Словен	-10.995
▁ПРЕСУДИ	-10.9952
▁конфликт	-10.9952
▁одлучује	-10.9952
▁похађа	-10.9952
▁војну	-10.9956
▁олимпијск	-10.9966
▁димензиј	-10.9966
▁провинциј	-10.9967
▁блажен	-10.9974
▁режиј	-10.998
▁покрајинск	-10.998
▁коришћен	-10.9981
Танјуг	-10.9981
▁Ђоковић	-10.9981
▁фудбалер	-10.9983
▁кутиј	-10.9987
▁вирус	-10.9989
ВИИИ	-10.999
патологиј	-10.9994
▁Медицинск	-10.9995
▁Одржан	-10.9995
▁педесет	-11
▁разумевање	-11.0005
▁интензивн	-11.0009
▁нафте	-11.0018
ВИИ	-11.002
▁Бранислав	-11.0023
хапс	-11.0031
▁традиционални	-11.0036
▁оружан	-11.0038
ШТЕ	-11.0038
патриот	-11.0041
РОД	-11.0048
▁штетн	-11.0051
▁Изетбеговић	-11.0051
▁инвалидитетом	-11.0051
▁постепено	-11.0051
дефинисан	-11.0051
▁емисије	-11.0051
▁супстанц	-11.0051
▁сродн	-11.0052
▁завршетка	-11.0053
▁рекорд	-11.0053
▁изађе	-11.0057
математичк	-11.0066
▁Часопис	-11.0066
▁Редакција	-11.0066
▁напредак	-11.0066
▁интеграције	-11.0066
▁ниж	-11.0066
▁Техничк	-11.0066
▁вође	-11.0069
▁посљедњ	-11.007
▁тренутн	-11.0071
свакодневн	-11.0074
▁светињ	-11.0078
▁понуђач	-11.008
византијск	-11.008
ступања	-11.0084
▁стиже	-11.0084
Вук	-11.0092
▁Проблем	-11.0094
▁победник	-11.0095
▁фирме	-11.0096
▁корупције	-11.0101
▁Виктор	-11.0105
▁првенства	-11.0109
▁јединство	-11.0109
▁крене	-11.0109
▁такви	-11.011
сајт	-11.0111
▁улицама	-11.0115
знајете	-11.0118
▁Тесла	-11.0122
▁патријаршиј	-11.0123
▁величине	-11.0123
▁морнар	-11.0124
▁регионални	-11.0124
▁помажу	-11.0124
усташк	-11.0125
▁колен	-11.0131
▁родитеље	-11.0137
▁бораца	-11.0138
вођењу	-11.0143
▁отпоч	-11.0145
ступљен	-11.0147
▁Арсен	-11.015
▁узнемир	-11.0152
▁Ватикан	-11.0152
▁СФРЈ	-11.0166
▁функционер	-11.0166
социјациј	-11.0166
▁избегава	-11.0166
▁грешке	-11.0166
▁корпус	-11.0166
▁започел	-11.0167
▁Јустин	-11.0172
▁класе	-11.0174
▁СНСД	-11.0176
▁рођендан	-11.018
▁пропаст	-11.0189
македонск	-11.0195
▁планине	-11.0199
▁пројектова	-11.0209
▁локација	-11.021
▁поштују	-11.0211
▁опстанак	-11.0215
▁легал	-11.0216
▁алтернатива	-11.0224
▁венча	-11.0224
▁РФ	-11.0231
▁клим	-11.0238
▁република	-11.0238
▁сигурност	-11.0247
НИЦА	-11.0249
▁снимак	-11.0252
▁појединац	-11.0253
▁истакла	-11.0256
▁Ђукановић	-11.0267
▁историјске	-11.0267
▁кревет	-11.0269
▁публикациј	-11.028
▁Бачк	-11.028
▁Јавне	-11.0282
▁способност	-11.0284
▁Услови	-11.0284
ствима	-11.0292
▁кретања	-11.0297
▁повреде	-11.0297
▁извршн	-11.03
▁службеник	-11.031
▁Нажалост	-11.0311
▁месеч	-11.0317
зур	-11.0318
регистрациј	-11.0321
▁Тренутно	-11.0326
▁тежак	-11.0326
▁најтеж	-11.033
плит	-11.0338
СТРА	-11.0338
▁организују	-11.0355
▁Стручн	-11.0358
▁проверу	-11.0359
▁посланици	-11.0359
▁Јун	-11.0364
▁финансијске	-11.037
▁организацион	-11.037
▁спроведен	-11.037
▁лечења	-11.037
▁кампање	-11.0371
▁Костић	-11.0372
▁циљеве	-11.0375
▁употреба	-11.0384
▁Харадинај	-11.0384
▁XX	-11.0386
▁Историјск	-11.0387
▁Ангел	-11.0387
▁постигл	-11.039
▁школску	-11.0399
▁обнавља	-11.0399
▁Почетак	-11.0399
▁књ	-11.0407
▁образовни	-11.0409
▁сиромашн	-11.0414
▁Архитектонск	-11.0414
▁Теодор	-11.0414
▁дискриминациј	-11.0418
▁чешће	-11.0419
▁цијел	-11.042
▁потребни	-11.0423
▁епизод	-11.0429
▁акцији	-11.0431
▁_--	-11.0431
▁Мастер	-11.0434
▁првенствено	-11.0443
▁Шведск	-11.0443
▁девојке	-11.0443
▁повезива	-11.0444
▁пророк	-11.0449
▁администратор	-11.0458
▁згради	-11.0459
Јединств	-11.046
▁пријава	-11.0462
▁околини	-11.0462
▁текстовима	-11.0463
▁смје	-11.0476
▁прошлост	-11.0486
▁америчка	-11.0488
▁нацрт	-11.0489
Карађорђе	-11.0503
▁привреду	-11.0503
стероид	-11.0503
▁донела	-11.0507
▁десетак	-11.0509
грађани	-11.0515
▁оптужи	-11.0518
▁Бањалука	-11.0518
▁повољн	-11.0522
▁деспот	-11.0524
▁жут	-11.0528
Фејсбук	-11.0533
функционалн	-11.0533
▁менаџер	-11.0533
▁врхунск	-11.0533
ређења	-11.0535
▁Сол	-11.0536
▁спортских	-11.0547
▁ослобођен	-11.0547
▁Парламент	-11.0547
▁покрајине	-11.0547
▁ангажован	-11.0552
▁Брнабић	-11.0562
▁компјутер	-11.0563
▁висине	-11.0564
▁животиње	-11.0567
▁цитира	-11.0569
▁Срем	-11.0569
▁овакав	-11.0569
▁послужи	-11.057
▁ауторски	-11.0571
▁другачији	-11.0577
▁инвестиција	-11.0592
▁Цлицк	-11.0593
▁Кнез	-11.0593
▁Информације	-11.0595
▁мозг	-11.0596
▁очекивањ	-11.0608
гхт	-11.0614
весел	-11.0615
▁универзалн	-11.0623
▁утакмицу	-11.0623
▁певач	-11.0634
▁полазн	-11.0637
▁сопствене	-11.0638
▁рехабилит	-11.0638
визуелн	-11.0638
крвав	-11.0639
▁београдски	-11.0652
жљив	-11.0652
▁принц	-11.0666
▁очекивати	-11.0668
▁презентација	-11.0668
▁трошкова	-11.0668
▁Цркву	-11.0668
▁потврђује	-11.0668
▁првобитн	-11.0669
▁преговора	-11.0671
▁трудноћ	-11.0672
▁непрестано	-11.0683
▁Крист	-11.0689
▁провера	-11.0694
▁позитивно	-11.0698
▁спољно	-11.0704
▁Нацрт	-11.0709
▁бригаде	-11.0713
▁репрезентатив	-11.0713
информативн	-11.0714
▁стотине	-11.0715
▁податак	-11.0723
▁шал	-11.0724
ЛОГ	-11.0729
ступају	-11.0734
▁духовне	-11.0734
▁мрак	-11.0741
▁разноврс	-11.0744
▁ПОСТ	-11.0744
▁снег	-11.0745
▁Лазаревић	-11.0746
▁Захваљујући	-11.0759
▁револуције	-11.0759
Независн	-11.0759
▁природа	-11.076
▁грб	-11.076
▁Пазар	-11.0765
▁свједо	-11.0774
▁пласман	-11.0775
▁двострук	-11.078
Влад	-11.0787
▁Албанаца	-11.079
▁Митровици	-11.079
▁ЈКП	-11.079
▁медицине	-11.079
▁очекују	-11.079
▁црвени	-11.0798
▁подвиг	-11.08
▁храброст	-11.0802
▁почињу	-11.0807
▁безбједност	-11.082
▁недостатак	-11.082
▁Савјет	-11.0825
▁Наставн	-11.0826
▁актуелни	-11.0836
▁анализира	-11.0836
ПДФ	-11.0836
СТВА	-11.0845
▁хеликоптер	-11.0851
▁пажње	-11.0852
штајн	-11.0854
▁увећа	-11.0856
▁закључак	-11.0867
▁Фрее	-11.0872
▁потреби	-11.0882
▁додељен	-11.0884
▁реализацији	-11.0884
▁награђен	-11.0885
▁појам	-11.0886
лазећи	-11.0889
популациј	-11.0893
▁Требиње	-11.0898
▁Диплом	-11.0898
▁кретање	-11.0899
▁Једино	-11.0899
▁граници	-11.0904
▁Веома	-11.0908
▁најближ	-11.0914
▁издвоји	-11.0916
идеолошк	-11.0924
▁боравак	-11.0929
▁каријере	-11.0929
▁изабере	-11.0929
▁Тагс	-11.093
▁облици	-11.0935
▁женско	-11.0935
▁комерцијал	-11.0944
▁Симеон	-11.0945
крипт	-11.0946
▁главне	-11.0946
▁власништву	-11.096
▁техника	-11.096
▁Жао	-11.0961
▁присуствовао	-11.0964
▁Познат	-11.097
▁обавештава	-11.0975
▁пракса	-11.0976
▁војсци	-11.0976
▁Једини	-11.0977
▁клуп	-11.0977
▁анкет	-11.0978
▁писму	-11.0982
инфо	-11.0982
▁гимназије	-11.0991
▁оспособ	-11.0991
▁првенству	-11.0991
▁трошкове	-11.0991
▁фабрике	-11.0991
▁потврђен	-11.0991
▁Великом	-11.0993
▁одвојен	-11.0994
▁сигурни	-11.1
планинск	-11.1
▁Често	-11.1005
▁НАПОМЕНА	-11.1007
▁финансије	-11.1007
цоокиес	-11.1007
психолошк	-11.1008
▁стреља	-11.101
▁боравка	-11.1022
▁Документ	-11.1022
▁оптерећ	-11.1023
▁блиски	-11.1034
▁функционише	-11.1038
▁културних	-11.1038
▁средњовековн	-11.1038
▁Најбољи	-11.1038
▁примарн	-11.1041
васпитн	-11.1041
▁црногорско	-11.1047
▁основна	-11.105
▁Супер	-11.105
▁утичу	-11.1051
▁завршетку	-11.1054
▁бирачк	-11.1058
мењив	-11.106
▁васпитач	-11.1063
▁упорно	-11.1069
▁трајања	-11.107
▁најзначајнији	-11.107
▁трагедиј	-11.1072
▁академија	-11.1085
▁ваљда	-11.1085
▁валут	-11.1085
▁флот	-11.1093
▁потрошњ	-11.1103
Југ	-11.1105
▁мемориј	-11.1105
▁прошли	-11.1107
икаквих	-11.1108
▁љубављу	-11.1113
▁Сарајева	-11.1117
▁хиљаду	-11.1117
▁титулу	-11.1117
▁кренуо	-11.1117
блаж	-11.1124
▁примора	-11.113
поменуто	-11.1132
▁Ердоган	-11.1133
▁традиција	-11.1133
▁доделу	-11.1135
▁образовно	-11.1148
▁Тодоровић	-11.1149
мештај	-11.1157
▁столиц	-11.1159
▁Развој	-11.1159
ембар	-11.116
▁пратњ	-11.1161
▁ажурира	-11.1165
▁Библиј	-11.1166
▁грл	-11.1174
▁садашње	-11.118
▁елемената	-11.118
▁посебну	-11.118
▁музику	-11.1181
▁дрвета	-11.1181
▁суверенитет	-11.1181
▁Спортск	-11.1183
▁шансе	-11.1183
▁Богослов	-11.1196
▁службу	-11.1198
▁захвалност	-11.1203
▁Православна	-11.1207
▁намерава	-11.1223
▁титлови	-11.1228
▁погорша	-11.123
▁Турака	-11.1232
▁Међународног	-11.1232
▁пратећ	-11.1237
▁формиран	-11.1238
▁телевизијск	-11.1244
▁количина	-11.1244
▁строго	-11.1253
селекциј	-11.1257
▁сеоск	-11.1259
▁донациј	-11.126
▁поретка	-11.1261
▁дипломатије	-11.1262
▁Спаситељ	-11.1262
▁Приказ	-11.1266
▁слици	-11.1268
▁Морав	-11.127
▁киселин	-11.1277
▁обустав	-11.1279
▁мртвих	-11.1281
Федерациј	-11.1283
▁менталн	-11.1284
▁америчко	-11.1294
▁албански	-11.1301
▁псовке	-11.1309
▁Садржај	-11.1309
▁Најновиј	-11.131
▁приказује	-11.1315
▁Пословн	-11.1317
▁Републику	-11.1325
▁граничн	-11.1329
олошке	-11.133
▁повећан	-11.1336
▁традицију	-11.1341
▁достигну	-11.1342
▁струковн	-11.1342
▁бесед	-11.1342
▁доласка	-11.1345
актичк	-11.1354
штва	-11.1357
▁инспекцијск	-11.1357
▁клијент	-11.1357
▁појединци	-11.1357
▁капетан	-11.1358
▁камион	-11.1358
▁Датум	-11.1359
▁обилаз	-11.1361
▁Форум	-11.1367
позит	-11.137
▁божанск	-11.1376
▁шифр	-11.1382
▁Клинтон	-11.139
▁припремљен	-11.139
▁Гледа	-11.1391
▁грешн	-11.1398
▁Маркетинг	-11.1406
▁геополитичк	-11.1406
▁браћо	-11.1407
▁констант	-11.1408
▁апел	-11.1417
▁власништво	-11.1422
▁синоћ	-11.1423
▁НДХ	-11.1423
▁смањен	-11.1424
▁седнице	-11.1425
▁реализације	-11.1426
▁љут	-11.1429
▁украс	-11.1433
▁суседн	-11.1433
▁судбина	-11.1439
▁сегмент	-11.1441
ВЕСТИ	-11.1443
▁израде	-11.1445
▁мировн	-11.1445
▁скромн	-11.1451
▁Агенције	-11.1455
▁Зворник	-11.1455
▁открио	-11.1455
▁династиј	-11.1456
▁аналитичар	-11.1488
▁италијански	-11.1488
▁Градиш	-11.1496
▁зависно	-11.1498
▁конкретно	-11.1506
▁учиониц	-11.1506
▁промену	-11.1507
▁Управа	-11.1516
▁студентск	-11.1519
▁челик	-11.1529
▁закључк	-11.1537
▁прекршај	-11.1537
▁пацијената	-11.1537
▁плес	-11.1538
▁реформе	-11.1538
карактеристичн	-11.1538
▁ткива	-11.1542
▁формално	-11.1547
Андр	-11.1547
богат	-11.1553
▁опрему	-11.1554
▁повреда	-11.1555
▁изградња	-11.1555
▁осмех	-11.1556
▁извјештај	-11.157
▁назад	-11.1578
▁експлозиј	-11.1587
▁обновљен	-11.1587
▁Африк	-11.1587
▁половини	-11.1587
популарно	-11.1593
▁венац	-11.1595
▁Живковић	-11.1604
▁изменама	-11.1605
▁браћа	-11.1614
▁бенд	-11.1617
▁указују	-11.1619
▁блиско	-11.1619
▁академик	-11.162
НОСТ	-11.163
Јован	-11.1634
▁цркава	-11.1637
▁саопштено	-11.1637
фашистичк	-11.164
▁избаци	-11.1646
▁забележен	-11.1654
▁куповину	-11.167
▁председава	-11.167
▁пролеће	-11.1672
▁латиниц	-11.1683
▁чишћење	-11.1687
▁Бугарске	-11.1687
▁СРБИЈА	-11.1687
▁продукциј	-11.1688
▁стрип	-11.1697
▁избеглица	-11.1715
▁процедура	-11.1721
▁Југословенск	-11.1721
▁контролом	-11.1721
▁цивила	-11.1721
▁одличан	-11.1724
▁Банат	-11.1737
▁посебна	-11.1737
▁претрп	-11.1741
▁Кирил	-11.1744
▁подстица	-11.1749
Печат	-11.175
Детаљ	-11.1753
▁рационал	-11.1754
▁Њега	-11.1754
▁изјаву	-11.1755
▁рушењ	-11.1762
▁Патријаршиј	-11.1771
▁Смедеревск	-11.1771
▁индустрија	-11.1771
▁међународна	-11.1771
▁енергију	-11.1772
▁тужиоц	-11.1772
▁оставку	-11.1789
▁Конгрес	-11.1791
▁молб	-11.1794
▁спаја	-11.1795
▁деведесетих	-11.1805
▁хрватске	-11.1805
▁Пошаљи	-11.1805
▁гомил	-11.1813
▁марш	-11.1815
▁Женск	-11.1818
▁штрајк	-11.1822
▁примењује	-11.1822
▁промовише	-11.1822
▁Телевизиј	-11.1822
▁закључен	-11.1824
▁нечије	-11.1827
▁латинск	-11.1828
ијском	-11.1837
▁приближава	-11.1839
▁Европској	-11.1842
▁ветр	-11.1854
▁ограничења	-11.1856
▁печат	-11.186
▁дугорочн	-11.1874
▁Призрен	-11.1874
▁Бразил	-11.1876
▁обезбеђењ	-11.189
▁ОВДЕ	-11.1891
▁научне	-11.1897
▁интересовање	-11.19
▁библиотеци	-11.1907
▁функцији	-11.1907
▁добродошл	-11.1907
▁инвестицион	-11.1907
▁ракете	-11.1908
▁притиском	-11.1908
▁саговорник	-11.1909
▁одабран	-11.1912
игијен	-11.192
▁страж	-11.1924
▁одраслих	-11.1925
▁ДРУГ	-11.1925
▁мудрост	-11.1929
▁објективн	-11.1931
▁уруче	-11.1937
▁Змај	-11.1942
▁започео	-11.1942
▁стигли	-11.1943
▁стигла	-11.195
▁Архијерејск	-11.1959
▁полувремену	-11.1959
▁агресије	-11.1959
▁груди	-11.1963
▁примљен	-11.1965
иттер	-11.1973
▁дневник	-11.1973
▁Високо	-11.1976
▁мрежу	-11.1976
најбољу	-11.1978
▁техничких	-11.1979
▁силн	-11.1985
▁батаљон	-11.1993
▁обезбеђује	-11.1993
▁музика	-11.1994
▁Срђан	-11.2011
▁Пирот	-11.2012
христ	-11.2019
ЈАВ	-11.2019
▁Литургија	-11.2028
одавц	-11.2029
▁Немањић	-11.2029
▁грешка	-11.2029
▁краљевск	-11.2029
▁теорије	-11.203
▁скреће	-11.203
▁Санкт	-11.2031
▁увече	-11.2039
▁жртву	-11.2045
▁републике	-11.2045
▁повезује	-11.2046
▁тешким	-11.2046
▁Словачк	-11.2047
▁кичм	-11.2049
▁КОНКУРС	-11.2063
▁Википедији	-11.2063
▁продавница	-11.2063
▁постојала	-11.2063
▁Василије	-11.2063
▁минималн	-11.2064
▁суштини	-11.2065
▁отказ	-11.2074
▁реформи	-11.2075
▁Норвешк	-11.208
▁удружење	-11.208
▁Користи	-11.2087
нгажова	-11.2092
▁скупштинск	-11.2098
▁раскол	-11.2112
▁Херцеговина	-11.2115
▁кренули	-11.2115
▁погинуло	-11.2116
▁теорија	-11.2116
▁бренд	-11.2119
▁доносе	-11.2123
▁опасно	-11.213
▁становници	-11.213
▁ослобођења	-11.2133
▁заувек	-11.2133
▁судбину	-11.2133
анђело	-11.2133
▁жесток	-11.2133
▁овогодишње	-11.2138
▁бајк	-11.2139
▁уверен	-11.215
▁дозволу	-11.215
▁Списак	-11.215
▁Провера	-11.2153
▁Систем	-11.2154
▁околине	-11.2156
▁документарн	-11.2165
▁администрације	-11.2168
▁Између	-11.2168
▁Двери	-11.2172
▁спасава	-11.2182
▁амбијент	-11.2185
▁коалиције	-11.2185
▁контролиса	-11.2185
▁цртеж	-11.2186
▁поплава	-11.2189
▁Данијел	-11.2198
▁Британск	-11.2203
▁одлуком	-11.2204
▁госпођ	-11.2221
▁интегритет	-11.2221
▁Византиј	-11.2221
▁Касније	-11.2221
▁ВЕЛИ	-11.2222
▁пребаци	-11.2225
▁стабилн	-11.2232
▁Арабиј	-11.2234
▁протојереј	-11.2238
▁половине	-11.2239
▁НАРОД	-11.2242
▁исплати	-11.2242
▁стаб	-11.2249
▁Градоначелник	-11.2256
▁Хиландар	-11.2256
▁корисно	-11.226
Срби	-11.2263
▁предузима	-11.2264
▁Бјел	-11.2271
▁емисији	-11.2274
▁образложе	-11.2277
▁сахран	-11.2277
▁униформ	-11.2279
цјен	-11.228
▁тежњ	-11.2285
▁исправно	-11.2286
▁Упркос	-11.2292
▁медаља	-11.2292
▁ванредни	-11.2293
редит	-11.2303
▁композициј	-11.2308
▁Важно	-11.2315
четник	-11.2317
▁оцена	-11.2319
▁Цхатроулетте	-11.2327
▁солидарн	-11.2327
толеранциј	-11.2328
мајор	-11.2332
▁мејл	-11.2332
▁окупљен	-11.2333
▁одбрамбен	-11.2345
▁ванредне	-11.2345
Павл	-11.2348
▁натпис	-11.235
▁Православно	-11.2359
▁Адам	-11.2359
▁катастрофа	-11.2363
▁смањује	-11.2363
▁Управе	-11.237
▁претњу	-11.237
▁апликацију	-11.2381
▁компромис	-11.2381
▁офанзив	-11.2381
▁накнаде	-11.2381
▁спремност	-11.2383
▁Кућ	-11.2386
▁ослања	-11.24
▁никакво	-11.24
▁Објавио	-11.2403
▁заказан	-11.2404
▁архиепископ	-11.2417
▁свештеници	-11.242
приморск	-11.2421
▁машт	-11.2434
▁Магазин	-11.2435
▁Краљевск	-11.2436
▁породично	-11.2437
ЦИОН	-11.2443
▁држављани	-11.2453
▁мушкарци	-11.2453
▁претрагу	-11.2453
▁фокусира	-11.2461
▁количине	-11.2471
▁задужбин	-11.2471
трибуциј	-11.2472
▁нигде	-11.2473
▁Србск	-11.2478
▁каријеру	-11.249
▁прописима	-11.249
▁помогну	-11.2491
Угарск	-11.2492
ковиц	-11.2504
▁конзул	-11.2511
▁ЦИА	-11.2515
▁побожн	-11.2518
▁Ђинђић	-11.2526
▁припрему	-11.2526
▁Јадран	-11.2528
борачк	-11.2528
▁искључи	-11.2535
▁никакав	-11.2546
Блиц	-11.2557
▁саслуша	-11.2564
▁акцион	-11.2564
▁њемачк	-11.2567
▁Припрем	-11.2567
▁просек	-11.2571
▁платн	-11.2572
▁Професор	-11.2581
▁обиљежава	-11.2581
▁средином	-11.2582
▁успева	-11.2591
▁непрекидн	-11.2599
▁вечерњ	-11.2603
лагали	-11.2605
конзерватив	-11.2608
▁октобру	-11.2618
▁актуелно	-11.2618
▁приближи	-11.2618
▁пасош	-11.2618
забавн	-11.2622
▁Либиј	-11.2634
▁ОНЛИНЕ	-11.2636
▁дванаест	-11.2636
▁обнову	-11.2637
▁Врбас	-11.264
▁осумњичен	-11.2654
▁портпарол	-11.2654
▁наслеђа	-11.2655
▁патњ	-11.2655
▁Авганистан	-11.2673
▁огроман	-11.2673
▁инсталира	-11.2674
▁фирми	-11.2674
пројект	-11.269
▁организовао	-11.2691
▁Највећи	-11.2692
▁заблуд	-11.2692
▁ментор	-11.2698
Велико	-11.2698
▁Аустрије	-11.271
▁теоријск	-11.2711
важећ	-11.2725
▁ИСТОРИЈ	-11.2729
▁постигао	-11.2729
▁пронашао	-11.2729
▁Грчкој	-11.2733
▁остварује	-11.2747
▁критичар	-11.2747
▁сателит	-11.2751
▁лозинк	-11.2753
ЕВИЋ	-11.2761
▁ОЕБС	-11.2766
▁аутентичн	-11.2766
▁датотека	-11.2766
▁Јеремић	-11.2766
▁одлучују	-11.2766
▁закључује	-11.2767
▁Скини	-11.2769
▁посету	-11.2769
▁задовољава	-11.2773
▁Позивам	-11.2777
▁Метохија	-11.2785
▁артиљериј	-11.2785
▁Земље	-11.2785
▁остварен	-11.2786
▁косм	-11.2791
▁фокус	-11.2795
▁Управног	-11.2804
▁заборавља	-11.2804
пожељн	-11.2805
▁извештава	-11.2822
▁превентивн	-11.2822
▁Роберт	-11.2822
▁Белгиј	-11.2824
▁приказива	-11.283
▁најмањ	-11.2837
▁драгоцен	-11.2841
▁јубилеј	-11.2841
▁финалу	-11.2841
ЕЋА	-11.2842
▁сврху	-11.286
▁спољне	-11.286
хришћанске	-11.2873
▁Представници	-11.2879
▁музичке	-11.2879
▁допунама	-11.2879
▁симпати	-11.2879
СПОРТ	-11.2879
▁Генералн	-11.2886
▁Земљи	-11.2897
Ћирилиц	-11.2898
окренут	-11.2898
▁РЕПУБЛИ	-11.2916
▁неопходна	-11.2916
▁вођств	-11.2916
▁поверење	-11.2917
▁Јосип	-11.2917
Посебн	-11.2919
▁континуиран	-11.2935
слон	-11.2954
▁НАБАВК	-11.2954
▁уклањање	-11.2954
▁подизање	-11.2954
▁непријатн	-11.2955
▁овлашћен	-11.2973
▁сличан	-11.2975
Вељко	-11.2975
▁агент	-11.2983
▁Југославија	-11.2992
▁контролише	-11.2992
▁модерне	-11.2993
▁Говори	-11.2993
▁школској	-11.2996
▁Белорусиј	-11.3012
▁Обреновић	-11.3012
▁заједницу	-11.3012
▁трошкови	-11.3031
▁Ваљево	-11.3031
▁хипер	-11.3033
▁џеп	-11.3036
успјешн	-11.3041
▁клиничк	-11.3044
▁Опширније	-11.305
▁попуст	-11.3061
▁Ђилас	-11.3069
облич	-11.3079
захвалн	-11.3086
▁важне	-11.3089
▁хроничн	-11.3089
▁задатке	-11.3089
▁пробуди	-11.3091
▁бесплатне	-11.3108
▁Митровић	-11.3108
▁Напомена	-11.3108
▁назвао	-11.3109
▁подухват	-11.3109
▁дружи	-11.3112
▁перформанс	-11.3127
▁песничк	-11.3128
нацистичк	-11.313
▁Коначн	-11.3135
хришћански	-11.3146
склад	-11.3146
▁југословенски	-11.3146
▁Далмациј	-11.3147
▁Музичк	-11.3147
▁газд	-11.3151
▁иницијатива	-11.3166
▁фолклор	-11.3185
Кликните	-11.3185
▁одобрен	-11.3186
▁политиком	-11.3205
▁савременог	-11.3206
▁интеграција	-11.3208
▁притисните	-11.3224
стајао	-11.3225
▁промоција	-11.3226
▁природу	-11.3226
▁огромно	-11.3227
▁тенденци	-11.3228
▁купц	-11.323
▁дефинитивно	-11.3244
▁имплементациј	-11.3244
▁маркетинг	-11.3244
▁прослеђен	-11.3244
▁учествовати	-11.3244
▁иПхоне	-11.3244
▁шпијун	-11.3244
религиозн	-11.3264
▁категорију	-11.3264
▁критике	-11.3264
▁оболел	-11.3265
▁ентитет	-11.3265
▁Забави	-11.3268
▁Џорџ	-11.3283
▁Литургију	-11.3283
▁Саудијск	-11.3283
▁оцењива	-11.3283
▁медаље	-11.3283
▁усвајање	-11.3286
▁пијац	-11.3291
Актуелн	-11.3303
▁грађански	-11.3304
▁петнаест	-11.3323
▁Стаљин	-11.3325
▁надморск	-11.3328
▁пастир	-11.3335
▁Ђорђа	-11.3342
▁Приједор	-11.3342
▁округл	-11.3343
▁расправе	-11.3343
▁пресуде	-11.3344
▁подигл	-11.3345
▁музичко	-11.3348
▁регистар	-11.3362
▁Округ	-11.3362
▁рукомет	-11.3363
▁тумачи	-11.3363
▁Теодоси	-11.3382
▁путевима	-11.3382
▁Војводина	-11.3382
▁невидљив	-11.3384
Олимп	-11.3388
▁старц	-11.3402
▁Категорије	-11.3402
▁запошљавања	-11.3402
▁Цвијановић	-11.3402
▁Шиптар	-11.3402
▁Зајечар	-11.3402
▁стигне	-11.3403
▁пошаље	-11.3403
▁репрезентације	-11.3422
▁Ваљева	-11.3422
▁повратку	-11.3422
Дечј	-11.3428
искусн	-11.3438
▁Библиотека	-11.3442
▁тријумф	-11.3442
▁преговоре	-11.3444
▁понуду	-11.3445
▁конкретни	-11.3448
погрешн	-11.3455
▁Следеће	-11.3462
▁Шапца	-11.3462
▁добављачи	-11.3462
▁Јосиф	-11.3462
▁шансу	-11.3464
▁пожеле	-11.3466
▁четворо	-11.3473
▁суверен	-11.3475
▁Митровица	-11.3482
▁Резолуциј	-11.3482
▁шаблон	-11.3482
▁анализу	-11.3482
призренск	-11.3483
▁ОВК	-11.3484
ФОРМ	-11.3487
▁гробниц	-11.3491
▁Аустрија	-11.3502
▁Њемачк	-11.3502
▁Одмах	-11.3504
▁трупа	-11.3507
▁архијерејск	-11.3521
▁допринел	-11.3522
▁секретаријат	-11.3523
▁стомак	-11.3524
▁Објав	-11.3525
▁убедљив	-11.3525
▁Олимпијск	-11.3526
▁најбоља	-11.3543
Михајло	-11.3544
▁Редовн	-11.3545
▁Одсек	-11.3548
▁океан	-11.3555
Мађар	-11.3557
▁претпоставља	-11.3562
▁Промоција	-11.3562
▁Врачар	-11.3563
▁образац	-11.3564
▁БЕЗ	-11.3564
▁недостају	-11.3567
▁интелигенциј	-11.3583
▁археолошк	-11.3583
▁цивилизације	-11.3583
▁Ристић	-11.3583
▁управник	-11.3586
▁илегал	-11.3586
▁Предсједништв	-11.3603
▁публике	-11.3603
▁Кремљ	-11.3604
▁предавач	-11.3604
▁Увек	-11.3606
▁наследник	-11.3608
▁изложбу	-11.3623
▁четрдесет	-11.3623
Заборав	-11.3624
▁представу	-11.3624
▁сајму	-11.3626
▁Кнежевић	-11.3644
▁Очекује	-11.3644
▁освојен	-11.3644
мпреси	-11.3649
▁језгр	-11.365
▁сметњ	-11.366
▁опасни	-11.3661
▁најкасније	-11.3664
▁трајању	-11.3664
▁Такмич	-11.3664
љубљен	-11.3664
▁истраге	-11.3665
▁Модера	-11.3667
херцеговачк	-11.3684
▁објекте	-11.3684
▁хектара	-11.3684
▁Жељко	-11.3685
▁олтар	-11.3686
▁крађ	-11.3687
дипломск	-11.3704
▁претпоставк	-11.3705
▁Зборник	-11.3705
▁нарушава	-11.3705
▁надокна	-11.3726
▁Карловц	-11.3733
стајали	-11.3741
▁хармон	-11.3741
▁химн	-11.3744
акредитациј	-11.3746
▁размотри	-11.3746
▁образован	-11.3747
▁расправа	-11.3748
▁преживел	-11.3748
▁употребљава	-11.3767
▁церемониј	-11.3767
▁срећан	-11.3767
▁ПДВ	-11.3767
Савремен	-11.3767
једињење	-11.3768
▁волонтер	-11.3787
▁конкуренцији	-11.3787
▁највероватније	-11.3787
▁дефинициј	-11.3787
▁Адреса	-11.3787
▁монаха	-11.3788
▁промоцију	-11.3788
▁сребрн	-11.3789
▁Окруж	-11.3789
пластичн	-11.379
ВРШ	-11.3795
▁ОПШТИНЕ	-11.3808
▁иницијативе	-11.3808
▁Јадовно	-11.3808
▁природне	-11.3809
▁минерал	-11.3809
▁одобрава	-11.3809
▁Рачун	-11.3816
▁Димитријевић	-11.3829
▁специјализован	-11.3829
▁отишли	-11.3829
▁Производ	-11.3829
▁канцеларије	-11.383
баланс	-11.3831
▁заборављен	-11.3832
▁Твитеру	-11.385
▁Јасеновац	-11.385
▁Југославију	-11.385
▁религија	-11.385
▁живјело	-11.385
▁обнове	-11.3851
▁дјецу	-11.3852
▁ПЛАН	-11.3858
▁изложби	-11.387
▁учествовала	-11.387
▁газета	-11.3871
▁разочара	-11.3891
▁архитектуре	-11.3891
Фронт	-11.3894
сумњиво	-11.3912
▁дворишту	-11.3912
▁декларациј	-11.3912
▁Булевар	-11.3912
▁техничар	-11.3912
▁Дмитриј	-11.3912
▁исхране	-11.3912
▁вежби	-11.3913
▁СРПСКЕ	-11.3933
▁површину	-11.3933
▁исповеда	-11.3933
▁контрола	-11.3933
придржавате	-11.3934
▁Катедр	-11.3936
ГЛАС	-11.394
помоћ	-11.3944
▁погођен	-11.3954
▁есеј	-11.3961
▁укључују	-11.397
▁процедуре	-11.3975
▁предизборн	-11.3975
▁поглавља	-11.3975
▁Додај	-11.3976
▁звезд	-11.3979
▁поверен	-11.3988
▁карактеристика	-11.3991
▁енергетике	-11.3996
▁индустрији	-11.3996
▁сакупља	-11.3997
▁Андриј	-11.4009
▁фајл	-11.4015
▁аутономиј	-11.4019
▁батериј	-11.402
▁обучен	-11.4024
▁мунициј	-11.4024
▁правописни	-11.4026
егзистенциј	-11.4039
▁философ	-11.4039
▁постигне	-11.4039
▁ПОЗИВ	-11.4039
привреда	-11.404
▁дозвољен	-11.4045
▁обраду	-11.4053
обавештен	-11.4059
▁ВУЧИЋ	-11.406
▁делегација	-11.406
▁координациј	-11.406
▁унапређења	-11.406
▁упућује	-11.406
▁Дизајн	-11.406
▁бесплатна	-11.406
▁стамбено	-11.406
хуманитарни	-11.406
▁зборник	-11.406
▁величина	-11.406
▁уредницима	-11.406
▁потрази	-11.4061
▁колекциј	-11.4065
▁слоган	-11.4076
▁артритис	-11.4081
▁навигацију	-11.4081
▁обезбеђен	-11.4081
▁кажњава	-11.4081
▁локацији	-11.4081
▁критику	-11.4083
▁побеђ	-11.4089
Радничк	-11.409
дружен	-11.4093
▁обележј	-11.4094
▁тишин	-11.4101
▁монархиј	-11.4102
▁причешћ	-11.4109
▁делегације	-11.4124
▁подршци	-11.4124
▁молитву	-11.4124
скршњ	-11.4134
▁обољењ	-11.4136
▁ДРЖАВ	-11.4145
▁презентације	-11.4145
▁Бесплатн	-11.4145
▁једноставан	-11.4145
▁државну	-11.4145
Доситеј	-11.4146
▁Синиша	-11.4146
▁конвенциј	-11.4146
▁султан	-11.4148
▁Сличн	-11.4151
▁југоисточн	-11.4167
▁минуту	-11.4168
▁Краљево	-11.4168
▁оштећења	-11.4188
▁спроводе	-11.419
▁епох	-11.4198
▁организовали	-11.421
▁фласх	-11.421
▁пројектн	-11.4212
▁имовинск	-11.4212
узмите	-11.4214
▁ОПШТ	-11.4229
ордПресс	-11.4231
▁Одјељење	-11.4231
▁неправд	-11.4231
▁Студентск	-11.4232
▁Команд	-11.4239
▁Жарк	-11.4244
▁опредељености	-11.4253
▁предузећима	-11.4253
▁Росијска	-11.4253
▁регулиса	-11.4253
▁протокол	-11.4253
▁лопту	-11.4253
▁уверење	-11.4255
▁крупн	-11.4262
▁успје	-11.4265
Олуј	-11.4265
▁профит	-11.4268
▁Стратегиј	-11.4272
▁Донбас	-11.4275
▁стамбени	-11.4275
▁спонзор	-11.4275
▁пажња	-11.4276
Шумадиј	-11.428
космичк	-11.4286
▁Уосталом	-11.4296
▁уназад	-11.4297
▁јединства	-11.4297
▁ГОДИНА	-11.4318
▁медицинске	-11.4318
▁учествовало	-11.4318
▁друштава	-11.4318
афричк	-11.4319
▁подземн	-11.4329
месечн	-11.4333
▁Социјалистичк	-11.434
▁Грачаница	-11.434
▁ММФ	-11.434
▁прогноз	-11.434
▁климатск	-11.4341
▁изучава	-11.4342
чвршћ	-11.4343
▁тужилац	-11.4362
▁погинуо	-11.4363
▁тројиц	-11.4368
▁месн	-11.4374
▁најпознатији	-11.4384
▁свеобухватн	-11.4384
▁утврђивање	-11.4384
▁чудесн	-11.4384
▁алијанс	-11.4388
▁морск	-11.44
▁буквално	-11.4406
▁Анализ	-11.4412
Заједниц	-11.4415
▁лабораторија	-11.4428
▁атентат	-11.4428
вјероватн	-11.4428
▁Најчешћ	-11.4429
▁добитник	-11.4429
▁штампу	-11.4429
▁Принцип	-11.4429
▁племенит	-11.4436
▁потпуни	-11.4436
▁количину	-11.445
▁површини	-11.445
▁кратки	-11.4451
▁коморе	-11.4453
▁катедр	-11.4456
▁централни	-11.4466
▁негира	-11.4469
▁неопходни	-11.4472
▁звездицом	-11.4472
▁емисија	-11.4472
▁дечаци	-11.4474
Репуб	-11.4483
демократски	-11.4486
слијед	-11.4494
▁физичке	-11.4495
▁конзерв	-11.4507
▁биографиј	-11.4513
▁Милосављевић	-11.4516
▁Филолошк	-11.4517
▁прослављен	-11.4517
▁Радомир	-11.4518
▁завичај	-11.4518
▁сведоци	-11.4522
Ноћ	-11.4522
▁Крагујевца	-11.4539
▁озбиљан	-11.4539
▁војвода	-11.4539
▁публика	-11.4541
нутрашњост	-11.4548
▁Ројтерс	-11.4561
▁Полицијск	-11.4561
▁Стојковић	-11.4561
▁Пореск	-11.4573
фицир	-11.4573
▁протеин	-11.4583
▁транспарент	-11.4583
▁доживљај	-11.4583
▁израелск	-11.4584
▁екипу	-11.4584
▁Школск	-11.4603
▁погинулих	-11.4606
▁процјени	-11.4606
▁асфалт	-11.4628
▁Синдикат	-11.4628
▁полицајац	-11.4628
▁постројењ	-11.4628
▁Одлуку	-11.4629
▁Ужице	-11.4629
▁Бошњак	-11.463
▁пројекциј	-11.4632
▁систематск	-11.4644
▁манипулациј	-11.4651
▁озбиљне	-11.4651
▁Одељења	-11.4651
▁енергија	-11.4652
▁гимназија	-11.4673
▁особље	-11.4674
▁непријатељск	-11.4675
▁војничк	-11.4682
▁Бијељина	-11.4696
▁Кустуриц	-11.4696
оријентациј	-11.4696
▁федерациј	-11.4696
▁витамин	-11.4696
▁зграду	-11.4697
▁доминира	-11.4699
корупциј	-11.4708
▁педагог	-11.4719
▁религије	-11.4719
▁концентрациј	-11.4719
▁усамљен	-11.4719
▁ропств	-11.472
▁сврста	-11.4734
▁континуитет	-11.4741
▁септембру	-11.4741
▁издвојен	-11.4742
▁канцеларија	-11.4742
▁припадност	-11.4742
▁памћењ	-11.4742
▁механизм	-11.4764
▁неопходне	-11.4764
▁архијереј	-11.4765
▁Дамаск	-11.477
▁поподне	-11.4772
▁механизам	-11.4787
▁репрезентација	-11.4787
▁такмичењима	-11.4787
▁данашњој	-11.4787
▁Природн	-11.4797
▁ДРУШТВ	-11.481
▁утврђује	-11.4811
▁Полиција	-11.4811
ређивања	-11.4835
▁пребива	-11.4837
▁повељ	-11.485
оружаних	-11.4854
▁СРПСКИ	-11.4856
▁инспектор	-11.4856
▁подигне	-11.4856
комуникацион	-11.4856
▁Врњачк	-11.486
▁лопов	-11.4867
▁модул	-11.4878
▁прецизира	-11.4879
▁молитви	-11.4879
▁трајати	-11.4879
Подршка	-11.4879
Попуните	-11.4879
▁мрачн	-11.4879
▁прљав	-11.4881
▁ветеран	-11.4881
пдф	-11.4882
▁професиј	-11.4882
радосн	-11.4897
▁сертификат	-11.4902
▁подигао	-11.4902
▁таблет	-11.4904
▁нежељен	-11.4905
▁Панчево	-11.4925
▁објашњење	-11.4925
▁економска	-11.4925
▁привредне	-11.4925
▁информацију	-11.4925
▁означи	-11.4926
енглески	-11.4933
▁средњошкол	-11.494
▁постојао	-11.4949
▁господ	-11.4969
▁овлашћења	-11.4972
▁бесплатан	-11.4972
▁Понекад	-11.4972
▁железниц	-11.4973
▁средњо	-11.4993
▁Јевреја	-11.4995
▁набавки	-11.4995
▁недјељ	-11.4996
▁оптимиз	-11.5001
>>	-11.5007
▁Њему	-11.5018
▁Начелник	-11.5018
▁РУСК	-11.5028
▁супротн	-11.5034
▁Вероватно	-11.5042
▁Шапцу	-11.5042
▁огромне	-11.5042
▁узајамн	-11.5042
Култура	-11.5042
продуктивн	-11.5042
▁ИСКРЕ	-11.5065
▁власници	-11.5065
▁етничко	-11.5068
▁мњењ	-11.5085
▁московск	-11.5089
▁Милојевић	-11.5089
Украјинск	-11.5089
▁Принц	-11.5109
▁бесмислен	-11.5112
▁децембру	-11.5112
▁изванредн	-11.5113
▁понуђен	-11.5113
▁високошколск	-11.5114
▁иновативн	-11.5116
▁новогодишњ	-11.513
▁актуелна	-11.5136
▁стваралаштва	-11.5136
▁Материјал	-11.5136
▁Центру	-11.5136
▁сведочанст	-11.5136
▁најзад	-11.5137
▁снимљен	-11.5141
▁стабилиз	-11.5144
▁ЖИВОТ	-11.516
▁ансамбл	-11.516
▁успостављен	-11.516
▁ограничава	-11.516
▁Француз	-11.516
▁рођак	-11.516
▁змиј	-11.5179
▁композитор	-11.5183
▁кукуруз	-11.5183
ставрофор	-11.5183
Русија	-11.5184
▁породични	-11.5186
▁СТРАН	-11.5197
брачн	-11.5202
▁асистент	-11.5207
▁сопствену	-11.5207
▁жалбе	-11.5207
▁портрет	-11.5208
▁типич	-11.521
▁Заштитник	-11.5231
▁ПРОГРАМ	-11.5231
▁позоришту	-11.5231
▁сценарио	-11.5231
▁крајевима	-11.5231
▁кликните	-11.5231
▁хуманитарно	-11.5255
конференциј	-11.5258
▁истоимен	-11.526
модернизациј	-11.5279
католици	-11.5279
▁нервн	-11.5286
▁традицији	-11.5303
▁угоститељ	-11.5303
▁породицом	-11.5303
▁преузме	-11.5303
Енерг	-11.5315
▁патриотск	-11.5321
▁Говорећи	-11.5327
▁прилагођава	-11.5327
▁човечанства	-11.5327
▁праксу	-11.5327
▁душевн	-11.5328
▁заслужује	-11.5328
▁биоскоп	-11.5332
алтернативн	-11.5351
▁Панчева	-11.5351
▁аустроугарск	-11.5351
▁убудуће	-11.5351
▁незгод	-11.5352
▁Богородиц	-11.5354
▁најпопуларнији	-11.5375
▁индекс	-11.5376
▁Локалн	-11.5378
▁Књажев	-11.54
▁помогли	-11.54
▁Учитељ	-11.54
▁етнички	-11.5402
ГРАЂ	-11.5411
▁следећа	-11.5424
▁примедб	-11.5426
▁сљедећ	-11.5427
▁Грузиј	-11.5446
▁Кандидат	-11.5448
▁квалификација	-11.5448
ЗДРАВ	-11.5448
▁оваквих	-11.5448
▁музичар	-11.5449
▁Грађани	-11.5449
▁Бошњаци	-11.5449
▁реагује	-11.5473
▁иПад	-11.5473
▁прогласил	-11.5475
▁очекивал	-11.5497
атлантск	-11.5497
▁садржати	-11.5498
▁пензион	-11.5513
▁ћирилице	-11.5522
▁Приватност	-11.5522
▁Васељенск	-11.5522
▁Алексеј	-11.5522
▁локацију	-11.5522
▁позицији	-11.5522
▁паралелн	-11.5522
▁Месец	-11.5526
▁телевизији	-11.5547
▁Биљана	-11.5547
▁тачака	-11.5548
▁Аустроугарск	-11.5571
▁академији	-11.5571
▁новембру	-11.5571
▁тужилаштво	-11.5571
▁коалиција	-11.5571
▁Ђукић	-11.5571
▁СРБИЈИ	-11.5571
доследн	-11.5584
▁Аутономн	-11.5596
▁Муслиман	-11.5596
▁дијабетес	-11.5596
▁појављива	-11.5596
▁старешина	-11.5596
Љубомир	-11.5602
критичн	-11.562
▁Бугарској	-11.5621
лустрациј	-11.5627
биолошк	-11.5645
▁Флор	-11.5645
▁дозвола	-11.5646
▁Радуловић	-11.5646
▁монографиј	-11.5646
▁омогућен	-11.5646
▁патолошк	-11.5648
▁Саопштење	-11.5671
▁помогао	-11.5671
▁претежно	-11.5671
▁попуњава	-11.5671
▁виноград	-11.5671
▁водопривред	-11.5671
▁богињ	-11.5679
▁Аустрији	-11.5696
▁Снежана	-11.5696
▁бруталн	-11.5696
▁принуђен	-11.5696
▁Вилијам	-11.5697
▁тоталн	-11.5701
▁Венециј	-11.5703
▁ЕВРОП	-11.5721
▁револуција	-11.5721
▁РТРС	-11.5721
▁божанств	-11.5721
▁неправилн	-11.5721
▁показива	-11.5722
▁Будимпешт	-11.5746
▁здравствену	-11.5746
Глобал	-11.5746
▁дебат	-11.5752
▁равноправн	-11.5767
▁Викимедијин	-11.5771
▁обвезник	-11.5771
▁творевин	-11.5772
▁Бугари	-11.5773
▁оклопн	-11.5778
▁монашк	-11.5778
▁зрн	-11.578
▁Литургије	-11.5796
▁економску	-11.5796
▁Делегациј	-11.5796
▁Дирекциј	-11.5797
▁аутономн	-11.584
▁бронзан	-11.5847
▁Москву	-11.5847
▁преминуо	-11.5847
▁пријатно	-11.5848
трпљење	-11.5864
▁Вазнесењ	-11.5872
▁Григорије	-11.5872
▁Смедерево	-11.5872
▁шиптарск	-11.5872
▁Португал	-11.5872
▁синдром	-11.5873
▁изненада	-11.5873
▁приватне	-11.5873
▁стимул	-11.5875
▁десниц	-11.5878
▁тематск	-11.5882
▁повукл	-11.5882
▁Дневн	-11.5887
▁тамошњ	-11.5887
▁подједнако	-11.5898
▁потруди	-11.5899
▁каријери	-11.5899
▁осиромаш	-11.5924
фантастичн	-11.5924
▁лингвисти	-11.5924
▁утврђивању	-11.5924
▁ПРОТИВ	-11.5924
▁гасовод	-11.5924
▁елект	-11.5939
▁Барселон	-11.5949
▁покренуо	-11.5949
▁Портал	-11.595
▁виртуелн	-11.5975
▁коришћењу	-11.5975
▁Бугарска	-11.5975
▁медаљу	-11.5975
▁идентификова	-11.5977
ификацион	-11.5995
▁Почетком	-11.6001
▁Секретаријат	-11.6001
▁изазвати	-11.6001
▁тешких	-11.6001
ЉУБ	-11.6009
▁вечит	-11.601
▁престанк	-11.6022
▁спозна	-11.6022
комуналне	-11.6024
Фудбал	-11.6026
▁психичк	-11.6027
▁изабрати	-11.6027
▁монаси	-11.6027
▁РУСИЈ	-11.6028
▁Атанасије	-11.6052
▁Објављивање	-11.6052
▁хендикеп	-11.6052
▁кренула	-11.6053
▁уранијум	-11.6053
▁сценариј	-11.6053
▁Стејт	-11.6078
▁одувек	-11.6078
▁особља	-11.6079
▁Хајде	-11.6083
▁руралн	-11.6083
▁екологиј	-11.6083
▁ослобођење	-11.6104
▁оваквим	-11.6104
▁Галерија	-11.6104
▁војводе	-11.6105
▁магнет	-11.6105
▁малолетн	-11.6108
▁архитектонск	-11.611
▁амбасаде	-11.6131
▁хомосексуал	-11.6131
▁југословенско	-11.6131
▁неприхватљив	-11.6131
▁изненади	-11.6131
▁мозак	-11.6131
материјал	-11.6141
▁грађанског	-11.6157
▁организовање	-11.6157
▁Јакшић	-11.6157
▁Фудбалск	-11.6157
▁револуционарн	-11.6183
▁ПОСЛОВ	-11.6183
▁огромна	-11.6183
▁Евроазиј	-11.6183
▁графичк	-11.6185
▁удобн	-11.6186
▁мањинск	-11.6205
расподел	-11.6205
▁организовала	-11.6209
▁Момчил	-11.621
▁ревн	-11.6218
▁прашин	-11.6226
▁постигну	-11.6235
▁школовања	-11.6236
▁Кључн	-11.6237
▁појединца	-11.6262
▁огњишт	-11.6263
▁смирен	-11.6264
▁Акциј	-11.6282
▁ватрогас	-11.6288
▁величанствен	-11.6289
▁подручјима	-11.6289
▁ангажовање	-11.6289
▁продужен	-11.6289
▁експлоатациј	-11.6315
▁реаговања	-11.6315
▁статистику	-11.6315
▁школовање	-11.6315
▁астроном	-11.6315
▁очигледн	-11.6323
▁Мачв	-11.6337
▁Преосвештенство	-11.6342
▁педагошк	-11.6342
▁хоризонт	-11.6342
▁препорука	-11.6342
талентован	-11.6342
▁медицинско	-11.6342
▁прикупљен	-11.6342
▁литературе	-11.6369
▁препоруке	-11.6369
▁унапређењу	-11.6369
▁Учесници	-11.6369
▁додељује	-11.6369
▁Светосавск	-11.6369
▁Сиријск	-11.637
▁џамиј	-11.6387
▁упозорења	-11.6395
▁Енглез	-11.6395
▁велепродај	-11.6395
▁Француски	-11.6396
▁леђима	-11.6396
▁стваралачк	-11.6406
▁публику	-11.6422
▁тржишн	-11.6422
▁референц	-11.6422
▁открије	-11.6423
▁започињ	-11.6423
▁Будући	-11.6449
илосрдн	-11.6452
социјалистичк	-11.6468
▁ванредно	-11.6478
▁финалн	-11.6484
▁примећује	-11.6503
▁спектр	-11.6504
▁скулпт	-11.6504
▁дефинише	-11.6531
▁Политички	-11.6531
Дневник	-11.6545
▁песниц	-11.6549
▁изненађење	-11.6558
▁такмичи	-11.6558
▁Високи	-11.6558
▁Лењин	-11.6564
▁претходи	-11.6585
▁инвестира	-11.6585
▁једанаест	-11.6591
фузиј	-11.66
▁квот	-11.6611
▁приповеда	-11.6613
▁Америку	-11.6613
▁песми	-11.6613
▁цјел	-11.6614
▁јутарњ	-11.6618
▁напредовањ	-11.664
▁Архиепископ	-11.664
▁интегрисан	-11.664
▁стипендија	-11.664
▁ПОЧЕТН	-11.664
▁несрећа	-11.664
▁приједлог	-11.664
▁надметањ	-11.6646
▁васељен	-11.6664
▁веровал	-11.6665
▁Председништва	-11.6668
▁дискусија	-11.6668
▁Живојин	-11.6668
регулациј	-11.6672
▁администрација	-11.6695
▁најуспешниј	-11.6695
▁прилагоди	-11.6695
▁заједничку	-11.6695
▁четничк	-11.6707
▁путничк	-11.6717
▁акредитован	-11.6723
▁опредељењ	-11.6723
▁Требињу	-11.6723
▁цвеће	-11.6723
▁Израиљ	-11.6723
оминатив	-11.6726
неспособ	-11.675
▁Октобар	-11.6751
▁спровођења	-11.6751
▁умјетности	-11.6779
▁допринети	-11.6779
▁важније	-11.6779
▁умјетни	-11.6779
▁Упутство	-11.6779
▁присуства	-11.6779
▁новосадск	-11.678
механичк	-11.6781
▁саветовањ	-11.6788
▁хормон	-11.6807
▁генетск	-11.6808
споставило	-11.681
▁прављењ	-11.6816
▁збирке	-11.6835
▁поверења	-11.6835
▁присутан	-11.6835
▁подржао	-11.6835
колонијал	-11.6836
поморск	-11.6838
▁Млађ	-11.6851
▁богослужења	-11.6863
▁дјелатности	-11.6863
▁спровођењу	-11.6863
▁доминантн	-11.6863
▁Скопљу	-11.6863
▁наметнут	-11.6863
▁привредног	-11.6891
▁супротстави	-11.6891
▁делегат	-11.6891
▁оближњ	-11.6891
▁статистичк	-11.6891
љубазн	-11.6892
▁Египат	-11.6919
▁резултира	-11.6919
▁тужилаштва	-11.6919
▁француске	-11.6919
▁италијанско	-11.6919
▁исплаћ	-11.6922
фашист	-11.6925
ображењ	-11.6925
изолаци	-11.6947
▁СЛОБОД	-11.6947
▁детињства	-11.6947
▁недостатка	-11.6947
▁опљачка	-11.6947
▁Оставите	-11.6947
▁атмосфери	-11.6976
▁испоруке	-11.6976
▁инфекције	-11.6976
▁Златоуст	-11.6976
▁групн	-11.6978
Српска	-11.6978
▁акутн	-11.6986
▁Георгија	-11.7004
▁Семинар	-11.7004
▁постојати	-11.7004
▁ГОДИНУ	-11.7033
▁руководства	-11.7033
▁Атлант	-11.7033
▁вароши	-11.7033
▁отишла	-11.7033
▁кажњен	-11.7033
▁контролн	-11.7035
▁огромни	-11.7037
▁копнен	-11.7045
▁дестинациј	-11.7062
▁ужасн	-11.7085
▁поређењу	-11.709
фреквен	-11.7119
▁започн	-11.712
Телеком	-11.7122
▁евидентира	-11.7148
▁Одустани	-11.7148
▁литерарн	-11.7148
▁проширен	-11.7148
Историј	-11.7166
крсн	-11.7169
▁Митрополиј	-11.7177
▁озбиљна	-11.7177
▁шездесет	-11.7177
▁неуспех	-11.7177
▁Ваљеву	-11.7177
▁рударств	-11.7178
▁презентова	-11.7206
▁Припадници	-11.7206
▁покровитељством	-11.7206
▁накнаду	-11.7206
▁сугестиј	-11.7206
▁БРОЈ	-11.7207
▁илузиј	-11.7209
двосмислен	-11.7235
▁Неготин	-11.7235
▁Алијанс	-11.7237
▁ракиј	-11.7261
жичк	-11.7261
▁најчешћ	-11.7262
Српски	-11.7263
рестолонаследник	-11.7264
▁Крушевац	-11.7264
▁несреће	-11.7264
▁искушења	-11.7264
▁Жељка	-11.7264
▁ОБАВЕШТЕЊЕ	-11.7294
▁контејнер	-11.7294
©	-14.229
