<unk>	0
<s>	0
</s>	0
<0x00>	0
<0x01>	0
<0x02>	0
<0x03>	0
<0x04>	0
<0x05>	0
<0x06>	0
<0x07>	0
<0x08>	0
<0x09>	0
<0x0A>	0
<0x0B>	0
<0x0C>	0
<0x0D>	0
<0x0E>	0
<0x0F>	0
<0x10>	0
<0x11>	0
<0x12>	0
<0x13>	0
<0x14>	0
<0x15>	0
<0x16>	0
<0x17>	0
<0x18>	0
<0x19>	0
<0x1A>	0
<0x1B>	0
<0x1C>	0
<0x1D>	0
<0x1E>	0
<0x1F>	0
<0x20>	0
<0x21>	0
<0x22>	0
<0x23>	0
<0x24>	0
<0x25>	0
<0x26>	0
<0x27>	0
<0x28>	0
<0x29>	0
<0x2A>	0
<0x2B>	0
<0x2C>	0
<0x2D>	0
<0x2E>	0
<0x2F>	0
<0x30>	0
<0x31>	0
<0x32>	0
<0x33>	0
<0x34>	0
<0x35>	0
<0x36>	0
<0x37>	0
<0x38>	0
<0x39>	0
<0x3A>	0
<0x3B>	0
<0x3C>	0
<0x3D>	0
<0x3E>	0
<0x3F>	0
<0x40>	0
<0x41>	0
<0x42>	0
<0x43>	0
<0x44>	0
<0x45>	0
<0x46>	0
<0x47>	0
<0x48>	0
<0x49>	0
<0x4A>	0
<0x4B>	0
<0x4C>	0
<0x4D>	0
<0x4E>	0
<0x4F>	0
<0x50>	0
<0x51>	0
<0x52>	0
<0x53>	0
<0x54>	0
<0x55>	0
<0x56>	0
<0x57>	0
<0x58>	0
<0x59>	0
<0x5A>	0
<0x5B>	0
<0x5C>	0
<0x5D>	0
<0x5E>	0
<0x5F>	0
<0x60>	0
<0x61>	0
<0x62>	0
<0x63>	0
<0x64>	0
<0x65>	0
<0x66>	0
<0x67>	0
<0x68>	0
<0x69>	0
<0x6A>	0
<0x6B>	0
<0x6C>	0
<0x6D>	0
<0x6E>	0
<0x6F>	0
<0x70>	0
<0x71>	0
<0x72>	0
<0x73>	0
<0x74>	0
<0x75>	0
<0x76>	0
<0x77>	0
<0x78>	0
<0x79>	0
<0x7A>	0
<0x7B>	0
<0x7C>	0
<0x7D>	0
<0x7E>	0
<0x7F>	0
<0x80>	0
<0x81>	0
<0x82>	0
<0x83>	0
<0x84>	0
<0x85>	0
<0x86>	0
<0x87>	0
<0x88>	0
<0x89>	0
<0x8A>	0
<0x8B>	0
<0x8C>	0
<0x8D>	0
<0x8E>	0
<0x8F>	0
<0x90>	0
<0x91>	0
<0x92>	0
<0x93>	0
<0x94>	0
<0x95>	0
<0x96>	0
<0x97>	0
<0x98>	0
<0x99>	0
<0x9A>	0
<0x9B>	0
<0x9C>	0
<0x9D>	0
<0x9E>	0
<0x9F>	0
<0xA0>	0
<0xA1>	0
<0xA2>	0
<0xA3>	0
<0xA4>	0
<0xA5>	0
<0xA6>	0
<0xA7>	0
<0xA8>	0
<0xA9>	0
<0xAA>	0
<0xAB>	0
<0xAC>	0
<0xAD>	0
<0xAE>	0
<0xAF>	0
<0xB0>	0
<0xB1>	0
<0xB2>	0
<0xB3>	0
<0xB4>	0
<0xB5>	0
<0xB6>	0
<0xB7>	0
<0xB8>	0
<0xB9>	0
<0xBA>	0
<0xBB>	0
<0xBC>	0
<0xBD>	0
<0xBE>	0
<0xBF>	0
<0xC0>	0
<0xC1>	0
<0xC2>	0
<0xC3>	0
<0xC4>	0
<0xC5>	0
<0xC6>	0
<0xC7>	0
<0xC8>	0
<0xC9>	0
<0xCA>	0
<0xCB>	0
<0xCC>	0
<0xCD>	0
<0xCE>	0
<0xCF>	0
<0xD0>	0
<0xD1>	0
<0xD2>	0
<0xD3>	0
<0xD4>	0
<0xD5>	0
<0xD6>	0
<0xD7>	0
<0xD8>	0
<0xD9>	0
<0xDA>	0
<0xDB>	0
<0xDC>	0
<0xDD>	0
<0xDE>	0
<0xDF>	0
<0xE0>	0
<0xE1>	0
<0xE2>	0
<0xE3>	0
<0xE4>	0
<0xE5>	0
<0xE6>	0
<0xE7>	0
<0xE8>	0
<0xE9>	0
<0xEA>	0
<0xEB>	0
<0xEC>	0
<0xED>	0
<0xEE>	0
<0xEF>	0
<0xF0>	0
<0xF1>	0
<0xF2>	0
<0xF3>	0
<0xF4>	0
<0xF5>	0
<0xF6>	0
<0xF7>	0
<0xF8>	0
<0xF9>	0
<0xFA>	0
<0xFB>	0
<0xFC>	0
<0xFD>	0
<0xFE>	0
<0xFF>	0
▁с	-0
▁п	-1
је	-2
на	-3
▁и	-4
ра	-5
▁д	-6
ко	-7
ни	-8
▁о	-9
ре	-10
ст	-11
но	-12
▁у	-13
ва	-14
не	-15
ли	-16
▁је	-17
ма	-18
ка	-19
ри	-20
▁по	-21
▁на	-22
ла	-23
ти	-24
ве	-25
во	-26
та	-27
ро	-28
▁з	-29
ви	-30
▁да	-31
те	-32
ја	-33
▁б	-34
то	-35
▁ко	-36
▁м	-37
ци	-38
ди	-39
▁за	-40
ло	-41
да	-42
▁се	-43
ле	-44
▁са	-45
го	-46
ме	-47
ње	-48
▁не	-49
▁а	-50
ју	-51
▁С	-52
ји	-53
▁од	-54
ру	-55
мо	-56
ки	-57
▁до	-58
▁су	-59
ста	-60
ку	-61
▁ка	-62
де	-63
ке	-64
▁из	-65
▁пре	-66
сти	-67
га	-68
▁би	-69
▁про	-70
▁ра	-71
▁П	-72
ну	-73
ће	-74
би	-75
чи	-76
ња	-77
че	-78
ту	-79
по	-80
зи	-81
це	-82
▁при	-83
▁мо	-84
же	-85
ми	-86
▁г	-87
▁М	-88
▁Н	-89
▁ш	-90
▁ре	-91
си	-92
ба	-93
се	-94
▁к	-95
▁то	-96
са	-97
▁К	-98
лу	-99
▁Б	-100
▁т	-101
▁ве	-102
▁ни	-103
па	-104
ско	-105
ца	-106
ше	-107
за	-108
▁го	-109
ље	-110
▁који	-111
ча	-112
сто	-113
жи	-114
ски	-115
ду	-116
бо	-117
▁Д	-118
ља	-119
▁О	-120
▁А	-121
▁де	-122
них	-123
▁те	-124
ног	-125
ћи	-126
▁ме	-127
до	-128
▁Т	-129
▁в	-130
▁В	-131
▁У	-132
њи	-133
▁ф	-134
▁И	-135
▁та	-136
ном	-137
жа	-138
▁све	-139
бе	-140
▁Р	-141
пи	-142
гу	-143
гра	-144
▁е	-145
▁ма	-146
тра	-147
ћа	-148
ђе	-149
љу	-150
▁па	-151
..	-152
▁ви	-153
▁годи	-154
▁ми	-155
пе	-156
▁Ср	-157
▁(	-158
ција	-159
ске	-160
ву	-161
ги	-162
дни	-163
▁ће	-164
со	-165
њу	-166
▁као	-167
пу	-168
ша	-169
▁об	-170
су	-171
▁сво	-172
▁раз	-173
ши	-174
ним	-175
▁што	-176
ције	-177
▁пред	-178
јо	-179
▁ин	-180
хо	-181
▁ста	-182
▁"	-183
▁З	-184
▁пра	-185
зе	-186
▁Г	-187
ред	-188
▁но	-189
▁„	-190
▁дру	-191
▁Ј	-192
▁По	-193
▁има	-194
▁ли	-195
ности	-196
▁На	-197
ор	-198
▁Срби	-199
▁пос	-200
ржа	-201
ком	-202
▁си	-203
вр	-204
▁во	-205
љи	-206
▁ва	-207
ђу	-208
▁које	-209
▁х	-210
сте	-211
▁нај	-212
му	-213
став	-214
▁под	-215
▁године	-216
тив	-217
зо	-218
▁ди	-219
▁ја	-220
ге	-221
▁није	-222
вић	-223
зу	-224
▁Е	-225
▁гра	-226
▁пу	-227
▁или	-228
▁бо	-229
ска	-230
▁бе	-231
▁-	-232
▁ње	-233
▁тре	-234
шти	-235
ђа	-236
▁Ми	-237
сно	-238
ског	-239
▁ч	-240
▁само	-241
дно	-242
вање	-243
▁али	-244
▁Ко	-245
пра	-246
▁ус	-247
сни	-248
▁Х	-249
▁пи	-250
▁ку	-251
лико	-252
нта	-253
она	-254
▁Ц	-255
▁зна	-256
▁пе	-257
реме	-258
▁ис	-259
▁стра	-260
▁Са	-261
чки	-262
▁ст	-263
▁Ка	-264
▁Л	-265
цу	-266
▁пот	-267
▁чи	-268
▁бу	-269
вом	-270
▁За	-271
сту	-272
▁која	-273
зна	-274
ност	-275
пре	-276
фи	-277
бра	-278
▁може	-279
▁ба	-280
▁жи	-281
▁кон	-282
гово	-283
шта	-284
▁ти	-285
▁Ма	-286
▁дана	-287
▁љу	-288
...	-289
▁це	-290
▁му	-291
▁пр	-292
ран	-293
▁че	-294
вања	-295
ште	-296
▁Не	-297
▁њи	-298
▁ду	-299
ника	-300
рија	-301
▁сам	-302
▁тако	-303
ских	-304
▁како	-305
▁Ф	-306
▁сви	-307
▁Бе	-308
▁га	-309
▁могу	-310
ћу	-311
ници	-312
чу	-313
▁пла	-314
▁бити	-315
лити	-316
није	-317
гле	-318
▁Бо	-319
▁–	-320
нда	-321
▁више	-322
▁ср	-323
▁ле	-324
тно	-325
ство	-326
▁сва	-327
рије	-328
▁јед	-329
▁фи	-330
фе	-331
бу	-332
ства	-333
вог	-334
вно	-335
ском	-336
▁зе	-337
▁оп	-338
▁Да	-339
▁ру	-340
дан	-341
▁вла	-342
▁био	-343
чно	-344
цију	-345
▁јо	-346
▁же	-347
▁ту	-348
нти	-349
▁от	-350
▁кра	-351
бли	-352
шт	-353
рт	-354
▁јер	-355
рга	-356
ха	-357
нт	-358
вима	-359
чко	-360
▁држа	-361
▁Србије	-362
▁спо	-363
▁треба	-364
вни	-365
▁кори	-366
▁ро	-367
вали	-368
▁слу	-369
▁Па	-370
▁било	-371
кто	-372
сла	-373
▁Ре	-374
▁време	-375
▁Та	-376
▁када	-377
▁тра	-378
▁смо	-379
▁То	-380
што	-381
ску	-382
као	-383
▁ц	-384
чке	-385
▁срп	-386
▁већ	-387
▁исто	-388
▁Ра	-389
стра	-390
гла	-391
вља	-392
▁Ме	-393
▁оста	-394
▁без	-395
▁орга	-396
▁Ш	-397
оп	-398
вро	-399
вара	-400
кон	-401
кре	-402
спо	-403
огра	-404
▁ова	-405
▁ради	-406
▁ло	-407
▁инте	-408
тро	-409
▁бро	-410
вим	-411
▁живо	-412
▁вели	-413
▁уз	-414
вати	-415
јући	-416
▁после	-417
ом	-418
зво	-419
▁уче	-420
▁Ни	-421
онал	-422
).	-423
ној	-424
▁вр	-425
▁одно	-426
бог	-427
род	-428
ској	-429
ром	-430
▁година	-431
ница	-432
▁још	-433
лек	-434
▁полити	-435
▁зем	-436
хи	-437
вој	-438
ој	-439
▁гла	-440
▁Ру	-441
ским	-442
▁ча	-443
вих	-444
кра	-445
лази	-446
ставља	-447
▁неко	-448
▁ком	-449
ник	-450
▁нема	-451
▁ју	-452
▁ак	-453
▁органи	-454
куп	-455
▁око	-456
▁Ба	-457
▁До	-458
так	-459
▁мора	-460
▁Све	-461
вље	-462
ван	-463
▁други	-464
цији	-465
уто	-466
вори	-467
јом	-468
тим	-469
▁Го	-470
▁фа	-471
▁посе	-472
▁ци	-473
▁Ве	-474
▁Је	-475
њем	-476
▁њего	-477
лан	-478
сли	-479
▁доби	-480
цима	-481
),	-482
дра	-483
фор	-484
сле	-485
кла	-486
▁међу	-487
▁пита	-488
▁Мо	-489
▁посто	-490
▁оба	-491
▁људи	-492
том	-493
▁Београ	-494
▁због	-495
седни	-496
▁Ч	-497
рк	-498
про	-499
бро	-500
▁њихо	-501
▁Ва	-502
▁своје	-503
вио	-504
▁шко	-505
▁Би	-506
вају	-507
тни	-508
рно	-509
мента	-510
▁Пре	-511
▁поче	-512
рти	-513
вао	-514
рне	-515
шко	-516
▁ла	-517
нима	-518
▁он	-519
▁кри	-520
▁ос	-521
при	-522
▁Но	-523
кљу	-524
▁сто	-525
жу	-526
нији	-527
▁со	-528
▁осно	-529
▁шта	-530
▁прои	-531
“,	-532
рио	-533
води	-534
лно	-535
▁један	-536
јем	-537
▁била	-538
▁нас	-539
▁так	-540
▁начи	-541
▁их	-542
лог	-543
▁Ја	-544
▁поста	-545
дом	-546
▁Ви	-547
чка	-548
▁ако	-549
▁Пе	-550
▁помо	-551
▁рекао	-552
нице	-553
▁него	-554
▁буде	-555
▁вој	-556
једни	-557
ционал	-558
он	-559
▁сте	-560
▁сада	-561
вен	-562
вне	-563
бле	-564
▁обја	-565
▁тога	-566
лади	-567
▁потре	-568
▁ове	-569
▁против	-570
нија	-571
▁обра	-572
рима	-573
ват	-574
писа	-575
▁ауто	-576
век	-577
▁код	-578
▁сло	-579
ниста	-580
▁нису	-581
лне	-582
▁иде	-583
▁иза	-584
реди	-585
публи	-586
▁приме	-587
▁док	-588
▁књи	-589
вер	-590
▁према	-591
▁три	-592
▁данас	-593
шће	-594
нте	-595
▁произво	-596
▁тр	-597
▁изме	-598
јек	-599
ман	-600
лту	-601
мери	-602
▁им	-603
▁Евро	-604
▁Де	-605
▁своји	-606
▁обе	-607
▁сма	-608
рен	-609
▁два	-610
рад	-611
▁свет	-612
јој	-613
▁наше	-614
▁одлу	-615
▁ок	-616
лом	-617
▁пове	-618
тета	-619
▁где	-620
▁наро	-621
▁каже	-622
▁број	-623
▁Про	-624
▁Те	-625
гледа	-626
шу	-627
▁упо	-628
▁сту	-629
лика	-630
▁исти	-631
рни	-632
цио	-633
▁При	-634
▁председни	-635
▁мно	-636
▁једи	-637
▁одржа	-638
бно	-639
чне	-640
нски	-641
▁пробле	-642
▁тај	-643
▁ге	-644
▁зах	-645
нг	-646
▁упра	-647
▁проце	-648
пла	-649
дне	-650
нистар	-651
лни	-652
▁они	-653
▁ово	-654
▁Србији	-655
▁право	-656
▁Срп	-657
▁прет	-658
▁чла	-659
чког	-660
▁дода	-661
▁Си	-662
▁нам	-663
▁систе	-664
▁Републи	-665
▁чу	-666
једи	-667
вре	-668
вани	-669
▁Руси	-670
▁ства	-671
нови	-672
▁она	-673
▁Од	-674
▁сла	-675
▁посло	-676
фа	-677
чај	-678
▁неки	-679
лта	-680
▁програ	-681
време	-682
рта	-683
нди	-684
▁коју	-685
▁наста	-686
▁преко	-687
▁начин	-688
▁томе	-689
роз	-690
рна	-691
▁култу	-692
▁буду	-693
▁Се	-694
тет	-695
▁много	-696
кри	-697
каза	-698
бора	-699
нк	-700
▁игра	-701
мет	-702
дио	-703
▁општи	-704
▁сна	-705
вању	-706
▁тек	-707
лија	-708
роди	-709
рати	-710
▁нови	-711
рији	-712
▁Јо	-713
ству	-714
▁рад	-715
▁друшт	-716
вољ	-717
стве	-718
воре	-719
▁над	-720
тре	-721
▁добро	-722
▁успе	-723
▁Ж	-724
▁чо	-725
мена	-726
вала	-727
▁гру	-728
▁сред	-729
ређе	-730
чких	-731
▁сти	-732
ђи	-733
шње	-734
▁др	-735
▁стру	-736
нера	-737
▁усло	-738
▁пут	-739
гре	-740
▁друго	-741
веде	-742
▁били	-743
▁реа	-744
▁којима	-745
▁нау	-746
форма	-747
▁кре	-748
▁стране	-749
▁једно	-750
▁разли	-751
вног	-752
▁грађа	-753
▁сад	-754
лиза	-755
сова	-756
▁овај	-757
▁фу	-758
▁неће	-759
▁оно	-760
говор	-761
шњи	-762
“.	-763
риј	-764
▁овог	-765
нова	-766
▁између	-767
▁прија	-768
▁организа	-769
▁хи	-770
▁ника	-771
вез	-772
носи	-773
новић	-774
▁хо	-775
нер	-776
тка	-777
дите	-778
▁кад	-779
▁Ву	-780
кло	-781
пада	-782
рак	-783
▁просто	-784
ома	-785
▁пози	-786
нске	-787
▁Из	-788
хе	-789
▁запо	-790
▁меди	-791
стру	-792
годи	-793
тар	-794
вје	-795
▁заједни	-796
▁јези	-797
▁завр	-798
вра	-799
▁кроз	-800
спе	-801
узе	-802
бри	-803
▁Њ	-804
▁бр	-805
▁кр	-806
лим	-807
ковић	-808
тне	-809
▁Ју	-810
мије	-811
▁фор	-812
нци	-813
говара	-814
туа	-815
ступ	-816
шки	-817
мира	-818
нд	-819
▁Ова	-820
▁прили	-821
▁зашти	-822
▁сме	-823
▁ши	-824
▁неколико	-825
нка	-826
▁имају	-827
бор	-828
▁ше	-829
▁поја	-830
вде	-831
▁велики	-832
вних	-833
кле	-834
▁део	-835
▁након	-836
▁Ли	-837
ар	-838
јте	-839
▁фо	-840
▁овом	-841
▁реги	-842
чни	-843
▁виде	-844
твр	-845
▁еко	-846
▁свој	-847
вном	-848
▁деце	-849
зулта	-850
▁дире	-851
▁здра	-852
▁зако	-853
ристи	-854
▁ки	-855
▁Ту	-856
▁црк	-857
▁изра	-858
▁нека	-859
логи	-860
▁свако	-861
▁Ако	-862
▁бра	-863
▁Он	-864
▁онда	-865
пло	-866
хва	-867
▁права	-868
▁лока	-869
▁сли	-870
вна	-871
▁представља	-872
▁хра	-873
вести	-874
▁фина	-875
нси	-876
▁оби	-877
сао	-878
гао	-879
шао	-880
зује	-881
сло	-882
▁Ђ	-883
▁ар	-884
▁говори	-885
▁својим	-886
▁учи	-887
▁позна	-888
▁“	-889
могу	-890
▁име	-891
▁друге	-892
▁Ду	-893
▁већи	-894
▁током	-895
мен	-896
ху	-897
вла	-898
▁користи	-899
▁нешто	-900
▁Ки	-901
▁обла	-902
▁Пред	-903
ако	-904
▁прави	-905
бар	-906
▁Тако	-907
▁Међу	-908
▁Ста	-909
сам	-910
▁Су	-911
▁резулта	-912
пак	-913
дова	-914
▁Ди	-915
вића	-916
▁две	-917
▁трену	-918
▁пода	-919
▁налази	-920
▁вас	-921
▁чита	-922
▁свих	-923
▁најбо	-924
▁мили	-925
▁веома	-926
ститу	-927
дру	-928
лна	-929
нског	-930
▁породи	-931
вити	-932
смо	-933
▁тех	-934
▁фе	-935
▁сматра	-936
шка	-937
▁мало	-938
више	-939
▁информа	-940
▁Ла	-941
▁истра	-942
▁ути	-943
▁изја	-944
▁своју	-945
▁први	-946
АД	-947
▁град	-948
ктор	-949
▁преду	-950
▁прош	-951
нама	-952
ндар	-953
▁Вла	-954
▁том	-955
▁ша	-956
гли	-957
тима	-958
▁потпу	-959
▁Бу	-960
▁Али	-961
▁уста	-962
▁Србија	-963
јека	-964
нира	-965
чан	-966
▁спре	-967
▁мате	-968
▁попу	-969
рват	-970
▁тим	-971
▁случа	-972
тку	-973
слу	-974
▁увек	-975
▁Републике	-976
сне	-977
вана	-978
▁послед	-979
▁пар	-980
чна	-981
нтра	-982
▁ек	-983
▁колико	-984
▁представ	-985
▁Пр	-986
▁наш	-987
▁којој	-988
▁најве	-989
▁једна	-990
вија	-991
▁односно	-992
▁актив	-993
нке	-994
воји	-995
▁њих	-996
▁опе	-997
лога	-998
цом	-999
тих	-1000
▁ри	-1001
▁посла	-1002
▁даље	-1003
▁'	-1004
вац	-1005
▁мног	-1006
▁пута	-1007
▁месе	-1008
▁интере	-1009
рију	-1010
▁теле	-1011
цијама	-1012
тем	-1013
▁сарад	-1014
ер	-1015
▁обаве	-1016
▁нове	-1017
рова	-1018
▁живот	-1019
▁чак	-1020
нара	-1021
вије	-1022
▁народ	-1023
▁речи	-1024
▁такође	-1025
чком	-1026
▁осо	-1027
рске	-1028
▁постоји	-1029
лазе	-1030
▁непо	-1031
▁поку	-1032
▁коме	-1033
шту	-1034
▁ца	-1035
лних	-1036
▁фил	-1037
▁перио	-1038
дна	-1039
▁слобо	-1040
▁Ха	-1041
нце	-1042
пред	-1043
▁вам	-1044
▁рас	-1045
▁дома	-1046
пита	-1047
▁Кра	-1048
▁поно	-1049
▁рачу	-1050
кти	-1051
▁гу	-1052
▁могућ	-1053
лног	-1054
једно	-1055
▁сај	-1056
▁Министар	-1057
▁уни	-1058
жбе	-1059
▁евро	-1060
▁национал	-1061
рање	-1062
▁ЕУ	-1063
лима	-1064
▁покре	-1065
нзи	-1066
▁изво	-1067
▁Ку	-1068
▁квали	-1069
вши	-1070
▁побе	-1071
шава	-1072
▁Алек	-1073
▁пројек	-1074
тера	-1075
▁тро	-1076
рка	-1077
тог	-1078
▁дела	-1079
разу	-1080
▁бор	-1081
купшти	-1082
▁наши	-1083
▁поли	-1084
шња	-1085
▁неза	-1086
сан	-1087
▁захте	-1088
▁финанси	-1089
става	-1090
▁оче	-1091
▁Београду	-1092
чким	-1093
▁иста	-1094
▁Нема	-1095
▁",	-1096
вет	-1097
▁спа	-1098
▁Ти	-1099
▁Нико	-1100
▁наме	-1101
тио	-1102
▁прису	-1103
чку	-1104
зима	-1105
тељ	-1106
▁дело	-1107
сећа	-1108
▁компа	-1109
шке	-1110
▁мисли	-1111
▁различи	-1112
▁сле	-1113
лије	-1114
▁Вој	-1115
▁изда	-1116
▁моде	-1117
▁свега	-1118
жно	-1119
дним	-1120
лаго	-1121
▁земље	-1122
нио	-1123
▁тада	-1124
▁једном	-1125
▁Ле	-1126
ступа	-1127
рма	-1128
кси	-1129
▁прода	-1130
фика	-1131
▁Со	-1132
мина	-1133
чних	-1134
▁свим	-1135
▁сре	-1136
▁висо	-1137
▁подр	-1138
џе	-1139
колико	-1140
вине	-1141
▁функ	-1142
тор	-1143
▁зло	-1144
▁Косо	-1145
тара	-1146
нов	-1147
▁власти	-1148
јан	-1149
▁области	-1150
мпа	-1151
рве	-1152
▁профе	-1153
▁међуна	-1154
▁Дру	-1155
▁окви	-1156
▁спе	-1157
▁ниво	-1158
шење	-1159
▁оне	-1160
▁вред	-1161
краји	-1162
▁НА	-1163
▁предузе	-1164
кту	-1165
јемо	-1166
▁зато	-1167
▁Ро	-1168
▁ад	-1169
сије	-1170
▁уме	-1171
▁овде	-1172
▁види	-1173
ђен	-1174
дија	-1175
кав	-1176
чић	-1177
▁преда	-1178
чкој	-1179
▁комента	-1180
град	-1181
мати	-1182
лих	-1183
▁/	-1184
жда	-1185
збе	-1186
мену	-1187
▁влада	-1188
▁Београд	-1189
гађа	-1190
▁поло	-1191
вила	-1192
▁боле	-1193
▁Ње	-1194
ћем	-1195
▁дан	-1196
сет	-1197
тан	-1198
▁вра	-1199
сна	-1200
дје	-1201
зма	-1202
▁милиона	-1203
сније	-1204
▁Мило	-1205
кул	-1206
вили	-1207
▁Це	-1208
▁Српске	-1209
▁времена	-1210
држа	-1211
▁помоћ	-1212
▁место	-1213
лага	-1214
љиво	-1215
њима	-1216
▁оства	-1217
▁других	-1218
мени	-1219
шћа	-1220
им	-1221
▁ситуа	-1222
▁ствара	-1223
▁бри	-1224
тер	-1225
ради	-1226
▁требало	-1227
насти	-1228
тна	-1229
леда	-1230
кова	-1231
врши	-1232
▁запа	-1233
▁питање	-1234
▁Дра	-1235
▁живота	-1236
кључи	-1237
▁воде	-1238
ницима	-1239
▁омогу	-1240
▁амери	-1241
▁напра	-1242
ђење	-1243
▁уби	-1244
▁Када	-1245
▁поједи	-1246
▁биће	-1247
▁БиХ	-1248
▁државе	-1249
▁пру	-1250
▁САД	-1251
рко	-1252
вним	-1253
▁оси	-1254
ген	-1255
бре	-1256
▁очи	-1257
▁пору	-1258
▁пошто	-1259
ТО	-1260
бру	-1261
▁генера	-1262
▁обу	-1263
▁друга	-1264
▁рада	-1265
▁препо	-1266
▁Сва	-1267
зни	-1268
стро	-1269
▁бли	-1270
хвати	-1271
▁см	-1272
верзи	-1273
▁истражи	-1274
▁председник	-1275
▁сигу	-1276
фо	-1277
▁можете	-1278
мом	-1279
▁града	-1280
▁Хри	-1281
▁испо	-1282
опште	-1283
▁Фи	-1284
▁одређе	-1285
љен	-1286
▁Га	-1287
штва	-1288
▁ал	-1289
жење	-1290
▁пока	-1291
▁земљи	-1292
▁саста	-1293
▁заи	-1294
▁нази	-1295
вео	-1296
▁институ	-1297
▁демо	-1298
▁избо	-1299
воје	-1300
▁сми	-1301
▁европ	-1302
▁ствари	-1303
дника	-1304
",	-1305
чног	-1306
ната	-1307
▁контро	-1308
▁води	-1309
▁држава	-1310
▁твр	-1311
▁значај	-1312
▁одгово	-1313
▁поре	-1314
▁ништа	-1315
▁једног	-1316
▁догађа	-1317
▁Нај	-1318
▁обзи	-1319
▁његово	-1320
▁ну	-1321
сре	-1322
▁себе	-1323
▁одсто	-1324
▁свету	-1325
▁образо	-1326
▁Европ	-1327
▁Ал	-1328
▁Пра	-1329
▁неде	-1330
рито	-1331
▁уну	-1332
▁народа	-1333
▁материја	-1334
▁Како	-1335
зби	-1336
▁члан	-1337
▁хе	-1338
жио	-1339
▁разу	-1340
▁производ	-1341
шења	-1342
▁доку	-1343
ранцу	-1344
▁значи	-1345
▁жели	-1346
сија	-1347
▁ода	-1348
▁суд	-1349
ск	-1350
лним	-1351
▁желе	-1352
▁нео	-1353
шку	-1354
▁гледа	-1355
▁Ово	-1356
нак	-1357
гне	-1358
▁доне	-1359
▁уда	-1360
тке	-1361
три	-1362
▁дуго	-1363
▁студе	-1364
▁иску	-1365
▁Сло	-1366
▁изве	-1367
▁ха	-1368
▁гре	-1369
тири	-1370
шћу	-1371
▁Амери	-1372
▁Према	-1373
▁Пи	-1374
▁њега	-1375
▁клу	-1376
шље	-1377
▁поред	-1378
▁мла	-1379
▁повећа	-1380
▁писа	-1381
▁чини	-1382
▁посебно	-1383
▁љуба	-1384
▁претхо	-1385
▁Пу	-1386
▁Црк	-1387
равно	-1388
▁чове	-1389
▁економ	-1390
▁енер	-1391
▁људ	-1392
цијом	-1393
рке	-1394
▁кому	-1395
дам	-1396
▁неке	-1397
▁ско	-1398
▁врло	-1399
шља	-1400
▁тог	-1401
вца	-1402
▁обезбе	-1403
бље	-1404
▁одбра	-1405
све	-1406
вањем	-1407
чење	-1408
обра	-1409
▁терито	-1410
▁призна	-1411
▁постоје	-1412
▁рата	-1413
▁Сте	-1414
▁ж	-1415
▁Госпо	-1416
▁дозво	-1417
▁Љ	-1418
нар	-1419
вод	-1420
▁општине	-1421
▁Во	-1422
▁света	-1423
ржи	-1424
▁оквиру	-1425
нска	-1426
гну	-1427
▁Међутим	-1428
▁мање	-1429
гије	-1430
жења	-1431
рају	-1432
▁Тре	-1433
▁такми	-1434
нских	-1435
нга	-1436
▁проте	-1437
зије	-1438
▁среди	-1439
лном	-1440
▁њима	-1441
▁как	-1442
▁Лу	-1443
▁показа	-1444
сио	-1445
▁распо	-1446
▁министар	-1447
мир	-1448
▁разво	-1449
наче	-1450
▁млади	-1451
гло	-1452
▁награ	-1453
шли	-1454
▁скла	-1455
зија	-1456
▁организо	-1457
вољно	-1458
▁кла	-1459
▁крају	-1460
чења	-1461
лка	-1462
▁тру	-1463
▁соција	-1464
▁случају	-1465
▁цркве	-1466
▁покуша	-1467
▁ову	-1468
▁развој	-1469
њој	-1470
▁безбе	-1471
кује	-1472
▁зат	-1473
▁имао	-1474
▁спро	-1475
▁корисни	-1476
▁тржи	-1477
ктора	-1478
▁ових	-1479
▁радо	-1480
чио	-1481
▁Као	-1482
нике	-1483
▁прича	-1484
▁Хрват	-1485
▁уре	-1486
▁пет	-1487
лић	-1488
▁велико	-1489
▁места	-1490
▁динара	-1491
▁одговор	-1492
▁годину	-1493
▁припре	-1494
▁сваки	-1495
▁школе	-1496
ара	-1497
▁Ин	-1498
јски	-1499
тету	-1500
рс	-1501
руч	-1502
▁вер	-1503
вљу	-1504
▁делу	-1505
▁окру	-1506
▁ам	-1507
▁оде	-1508
▁манасти	-1509
▁реч	-1510
▁одговара	-1511
▁ана	-1512
лица	-1513
▁боље	-1514
▁четири	-1515
дници	-1516
така	-1517
▁комп	-1518
јање	-1519
”,	-1520
чним	-1521
▁сами	-1522
▁Влади	-1523
вор	-1524
ђује	-1525
▁употре	-1526
▁уве	-1527
▁лу	-1528
▁свом	-1529
▁чиње	-1530
▁уло	-1531
▁свог	-1532
▁недо	-1533
▁пону	-1534
ђења	-1535
ферен	-1536
▁проблем	-1537
вности	-1538
▁Ар	-1539
▁века	-1540
▁музи	-1541
▁ћемо	-1542
▁зави	-1543
▁пости	-1544
ин	-1545
▁центра	-1546
▁утица	-1547
рани	-1548
▁опре	-1549
сом	-1550
▁тради	-1551
▁ужи	-1552
▁мај	-1553
това	-1554
матра	-1555
пис	-1556
▁овој	-1557
тко	-1558
рања	-1559
▁утвр	-1560
▁заједно	-1561
▁основу	-1562
▁јесте	-1563
▁потпуно	-1564
тељи	-1565
▁ап	-1566
▁почи	-1567
▁дра	-1568
▁конку	-1569
нос	-1570
▁Че	-1571
тивно	-1572
▁нико	-1573
кли	-1574
▁бес	-1575
▁пого	-1576
опхо	-1577
▁прво	-1578
▁паж	-1579
времено	-1580
▁коришће	-1581
чар	-1582
▁евра	-1583
▁поте	-1584
љена	-1585
▁После	-1586
▁земља	-1587
▁конце	-1588
▁напа	-1589
▁Џ	-1590
▁дија	-1591
▁настав	-1592
чну	-1593
▁систем	-1594
▁Бри	-1595
▁елек	-1596
▁зи	-1597
ницу	-1598
▁често	-1599
▁активности	-1600
ћег	-1601
▁пољ	-1602
▁неу	-1603
▁потвр	-1604
▁задо	-1605
▁тран	-1606
▁српске	-1607
▁мину	-1608
▁ново	-1609
дије	-1610
мини	-1611
▁другим	-1612
сима	-1613
лаза	-1614
▁Југо	-1615
мје	-1616
▁система	-1617
▁врати	-1618
вну	-1619
тово	-1620
▁парти	-1621
▁пона	-1622
мбра	-1623
▁домаћи	-1624
▁правосла	-1625
јске	-1626
лост	-1627
▁укљу	-1628
▁факул	-1629
мах	-1630
▁Русије	-1631
хвата	-1632
▁изузе	-1633
мене	-1634
лац	-1635
▁напо	-1636
▁мре	-1637
▁звани	-1638
ђена	-1639
ума	-1640
▁Фе	-1641
▁радио	-1642
кције	-1643
лну	-1644
▁Срба	-1645
▁упу	-1646
▁кру	-1647
лит	-1648
рана	-1649
▁себи	-1650
▁Исто	-1651
гро	-1652
▁осећа	-1653
▁можда	-1654
▁веза	-1655
јања	-1656
▁прона	-1657
▁имали	-1658
▁оце	-1659
▁умет	-1660
тних	-1661
▁могао	-1662
▁отворе	-1663
штво	-1664
▁школа	-1665
▁лице	-1666
▁архи	-1667
▁последњи	-1668
тски	-1669
зују	-1670
каде	-1671
▁наводи	-1672
▁Ча	-1673
▁карак	-1674
▁поз	-1675
нском	-1676
▁касније	-1677
▁пола	-1678
▁питања	-1679
▁књиже	-1680
▁поди	-1681
▁изло	-1682
опри	-1683
▁пара	-1684
▁тамо	-1685
▁допри	-1686
▁тешко	-1687
▁...	-1688
▁поново	-1689
▁".	-1690
▁бих	-1691
▁Алекса	-1692
▁саве	-1693
јима	-1694
▁садржа	-1695
нде	-1696
глед	-1697
▁,	-1698
гом	-1699
јекат	-1700
▁друштве	-1701
▁Му	-1702
такми	-1703
нове	-1704
чном	-1705
▁Има	-1706
▁Сто	-1707
▁приликом	-1708
▁запосле	-1709
▁жа	-1710
▁којим	-1711
▁потребно	-1712
▁руко	-1713
▁НАТО	-1714
▁уна	-1715
тске	-1716
▁опо	-1717
▁Зе	-1718
тити	-1719
▁толико	-1720
▁управо	-1721
▁W	-1722
теља	-1723
▁међународ	-1724
▁Гра	-1725
▁Након	-1726
вина	-1727
тком	-1728
▁крај	-1729
▁српског	-1730
▁Београда	-1731
▁—	-1732
▁благо	-1733
тора	-1734
оте	-1735
▁духо	-1736
▁насе	-1737
▁наја	-1738
▁грађана	-1739
▁обли	-1740
▁својих	-1741
▁следе	-1742
графи	-1743
роватно	-1744
▁имати	-1745
▁веру	-1746
▁Саве	-1747
▁Овај	-1748
вред	-1749
мент	-1750
▁многи	-1751
▁човек	-1752
▁могуће	-1753
▁родите	-1754
▁пример	-1755
кама	-1756
▁председника	-1757
лега	-1758
▁услу	-1759
▁наред	-1760
соб	-1761
▁важ	-1762
мета	-1763
▁којих	-1764
бом	-1765
▁озби	-1766
▁јој	-1767
дити	-1768
▁тражи	-1769
циони	-1770
▁објавље	-1771
▁зема	-1772
рење	-1773
шно	-1774
▁овим	-1775
▁ипак	-1776
кција	-1777
▁програм	-1778
▁фото	-1779
рски	-1780
јева	-1781
▁изне	-1782
▁српски	-1783
нција	-1784
рао	-1785
▁Ге	-1786
▁формира	-1787
рви	-1788
▁доста	-1789
▁једну	-1790
▁мје	-1791
▁неопхо	-1792
▁питању	-1793
▁посве	-1794
рва	-1795
лар	-1796
▁периоду	-1797
▁опа	-1798
џи	-1799
▁нагла	-1800
▁испу	-1801
▁оду	-1802
▁обо	-1803
ришћа	-1804
▁Ри	-1805
дили	-1806
▁програма	-1807
▁закона	-1808
▁госпо	-1809
дера	-1810
▁месту	-1811
▁подруч	-1812
▁техно	-1813
рења	-1814
▁успо	-1815
▁приро	-1816
зам	-1817
▁баш	-1818
▁окто	-1819
▁утакми	-1820
жба	-1821
".	-1822
▁иако	-1823
▁Дана	-1824
стима	-1825
▁власни	-1826
▁Такође	-1827
▁Уни	-1828
лаже	-1829
лности	-1830
рту	-1831
рска	-1832
▁краја	-1833
нити	-1834
ђени	-1835
▁живе	-1836
нто	-1837
▁Оп	-1838
▁његов	-1839
▁мишље	-1840
▁Вели	-1841
▁ствар	-1842
▁сазна	-1843
цо	-1844
сности	-1845
дба	-1846
рем	-1847
▁хиља	-1848
▁пољопри	-1849
▁Србију	-1850
▁циљ	-1851
▁долази	-1852
▁јуна	-1853
лине	-1854
говора	-1855
вреде	-1856
▁предста	-1857
▁културе	-1858
▁глу	-1859
НА	-1860
▁редо	-1861
▁највише	-1862
▁Љу	-1863
”.	-1864
▁Војводи	-1865
бан	-1866
писко	-1867
пусти	-1868
▁Косова	-1869
▁свака	-1870
▁одмах	-1871
дности	-1872
водом	-1873
рити	-1874
▁здрав	-1875
▁бога	-1876
циона	-1877
▁анти	-1878
▁заврше	-1879
▁осло	-1880
▁поне	-1881
▁инвести	-1882
▁нити	-1883
▁Жи	-1884
▁јасно	-1885
▁Они	-1886
право	-1887
▁слика	-1888
▁најбољи	-1889
▁физи	-1890
▁којем	-1891
▁Скупшти	-1892
уз	-1893
▁посао	-1894
▁часова	-1895
▁стано	-1896
леко	-1897
▁посеб	-1898
▁откри	-1899
мови	-1900
▁највећи	-1901
рили	-1902
▁службе	-1903
трија	-1904
▁сим	-1905
зду	-1906
▁дипло	-1907
сност	-1908
▁ћу	-1909
▁изград	-1910
вите	-1911
▁зада	-1912
....	-1913
леж	-1914
стри	-1915
▁задржа	-1916
▁поде	-1917
▁својој	-1918
▁једне	-1919
▁дје	-1920
▁вози	-1921
нко	-1922
▁изгледа	-1923
▁зо	-1924
▁мани	-1925
▁нашег	-1926
лошки	-1927
РА	-1928
љено	-1929
▁затим	-1930
▁разуме	-1931
▁вези	-1932
▁буџе	-1933
▁трго	-1934
▁четвр	-1935
▁изјавио	-1936
▁опера	-1937
▁закон	-1938
риса	-1939
▁довољно	-1940
вцу	-1941
штај	-1942
▁унутра	-1943
▁нисам	-1944
цама	-1945
дном	-1946
▁проблема	-1947
▁складу	-1948
птем	-1949
ђено	-1950
прија	-1951
▁пома	-1952
▁група	-1953
лизо	-1954
нтар	-1955
▁Же	-1956
▁оних	-1957
мпе	-1958
зента	-1959
▁раде	-1960
▁раду	-1961
▁никада	-1962
▁дола	-1963
▁Није	-1964
▁учество	-1965
▁лица	-1966
▁парт	-1967
▁год	-1968
▁професо	-1969
нац	-1970
врше	-1971
кр	-1972
▁демокра	-1973
▁дефи	-1974
▁пое	-1975
▁припа	-1976
▁Ло	-1977
▁Зато	-1978
▁канди	-1979
▁рат	-1980
▁пора	-1981
▁споразу	-1982
љени	-1983
▁интер	-1984
воде	-1985
рам	-1986
нуо	-1987
дног	-1988
ква	-1989
блиоте	-1990
▁њему	-1991
тина	-1992
▁путем	-1993
▁злочи	-1994
▁еки	-1995
▁хришћа	-1996
▁озбиљ	-1997
▁укуп	-1998
▁уколико	-1999
▁чији	-2000
дник	-2001
▁тих	-2002
▁изгу	-2003
▁коми	-2004
жан	-2005
листи	-2006
▁планира	-2007
▁сце	-2008
▁подржа	-2009
▁Град	-2010
▁књига	-2011
▁специја	-2012
зори	-2013
▁захва	-2014
▁Југосла	-2015
▁поми	-2016
▁биле	-2017
▁Фа	-2018
▁Хо	-2019
▁заврши	-2020
дних	-2021
чности	-2022
▁рачуна	-2023
▁земаља	-2024
▁истакао	-2025
дуст	-2026
чара	-2027
нгле	-2028
▁чега	-2029
▁спорт	-2030
▁бора	-2031
нију	-2032
▁Она	-2033
▁једин	-2034
▁септем	-2035
▁ору	-2036
▁згра	-2037
рног	-2038
▁одли	-2039
▁предви	-2040
обраћа	-2041
▁живи	-2042
сме	-2043
жила	-2044
▁угла	-2045
▁премије	-2046
▁могли	-2047
▁рече	-2048
сци	-2049
▁могућности	-2050
▁ван	-2051
нку	-2052
▁пло	-2053
▁помоћи	-2054
▁пле	-2055
▁вредности	-2056
▁кога	-2057
тин	-2058
▁можемо	-2059
ством	-2060
▁потреб	-2061
бија	-2062
▁његове	-2063
▁моћи	-2064
▁рекла	-2065
дила	-2066
▁тере	-2067
▁дне	-2068
њен	-2069
▁иско	-2070
▁гро	-2071
▁односу	-2072
▁директор	-2073
▁будућ	-2074
▁Ау	-2075
кта	-2076
пису	-2077
сједни	-2078
▁имамо	-2079
▁групе	-2080
▁лако	-2081
▁циље	-2082
▁раније	-2083
нијих	-2084
▁управља	-2085
▁најбоље	-2086
јског	-2087
бина	-2088
кро	-2089
▁нама	-2090
▁добија	-2091
▁крити	-2092
▁оку	-2093
▁заиста	-2094
▁Ша	-2095
▁забора	-2096
▁речима	-2097
▁апри	-2098
▁користе	-2099
▁подршку	-2100
лова	-2101
лазак	-2102
лици	-2103
▁упозна	-2104
▁скупшти	-2105
▁жена	-2106
▁иг	-2107
▁болести	-2108
▁власт	-2109
▁кли	-2110
▁гр	-2111
▁могућност	-2112
▁пружа	-2113
▁сара	-2114
▁видео	-2115
▁становни	-2116
▁стандар	-2117
▁току	-2118
НИ	-2119
ћемо	-2120
▁осу	-2121
▁криви	-2122
▁огра	-2123
тријар	-2124
чито	-2125
▁дво	-2126
▁соп	-2127
▁Владе	-2128
▁носи	-2129
▁прити	-2130
▁режи	-2131
прав	-2132
чује	-2133
▁теме	-2134
тивне	-2135
▁саобраћа	-2136
шког	-2137
▁објек	-2138
▁поступ	-2139
њује	-2140
лаз	-2141
▁историј	-2142
купља	-2143
▁ау	-2144
кс	-2145
▁условима	-2146
љења	-2147
шло	-2148
бр	-2149
▁еми	-2150
▁полу	-2151
дина	-2152
▁седам	-2153
▁интерне	-2154
ксу	-2155
седник	-2156
бије	-2157
▁Францу	-2158
сак	-2159
▁ум	-2160
мање	-2161
▁Инте	-2162
кар	-2163
▁пише	-2164
њом	-2165
▁овак	-2166
▁Балка	-2167
▁сопстве	-2168
▁брзо	-2169
▁мр	-2170
зај	-2171
дима	-2172
▁граду	-2173
▁скоро	-2174
▁учесни	-2175
из	-2176
логије	-2177
▁незави	-2178
▁отвара	-2179
▁пројекта	-2180
лости	-2181
▁години	-2182
мија	-2183
▁лепо	-2184
били	-2185
баса	-2186
▁попут	-2187
▁Ђу	-2188
▁мини	-2189
▁Зо	-2190
▁пер	-2191
По	-2192
мана	-2193
▁кандида	-2194
ване	-2195
тну	-2196
▁страте	-2197
▁дирек	-2198
▁Поред	-2199
пити	-2200
▁страна	-2201
над	-2202
лице	-2203
▁Мето	-2204
гија	-2205
▁књиге	-2206
вајући	-2207
рп	-2208
▁Њего	-2209
дин	-2210
тори	-2211
▁индуст	-2212
▁одре	-2213
▁велике	-2214
▁проду	-2215
▁језика	-2216
ловић	-2217
▁савреме	-2218
▁неприја	-2219
вама	-2220
▁Иако	-2221
нути	-2222
пле	-2223
жен	-2224
оста	-2225
▁послова	-2226
▁Александар	-2227
▁градо	-2228
стоји	-2229
▁чему	-2230
▁вазду	-2231
▁жрт	-2232
▁вје	-2233
▁филм	-2234
јете	-2235
▁зау	-2236
зију	-2237
▁изабра	-2238
једиње	-2239
▁Сада	-2240
вној	-2241
▁Ци	-2242
▁Бог	-2243
▁вече	-2244
▁Хи	-2245
шњег	-2246
▁Народ	-2247
▁опту	-2248
▁Универзи	-2249
мишља	-2250
▁наведе	-2251
▁Због	-2252
лаца	-2253
▁прва	-2254
▁последи	-2255
▁дока	-2256
слав	-2257
▁наси	-2258
форми	-2259
▁акаде	-2260
▁једностав	-2261
▁аген	-2262
▁дета	-2263
▁мене	-2264
▁разлога	-2265
▁прове	-2266
свим	-2267
▁забра	-2268
▁Европе	-2269
▁куће	-2270
▁Гр	-2271
▁гласа	-2272
нским	-2273
▁велика	-2274
▁цент	-2275
▁дуж	-2276
шла	-2277
▁електро	-2278
▁ску	-2279
име	-2280
▁доба	-2281
▁Божи	-2282
▁звез	-2283
▁избе	-2284
▁потом	-2285
▁особа	-2286
рми	-2287
▁предло	-2288
зне	-2289
▁написа	-2290
▁удру	-2291
▁углавном	-2292
рали	-2293
▁дете	-2294
кови	-2295
јеката	-2296
▁парла	-2297
џа	-2298
▁података	-2299
лијар	-2300
тног	-2301
нтима	-2302
▁закљу	-2303
био	-2304
▁прије	-2305
вало	-2306
▁Нови	-2307
жби	-2308
▁готово	-2309
▁ука	-2310
▁обеле	-2311
▁његова	-2312
▁Хер	-2313
тили	-2314
▁нових	-2315
ел	-2316
▁техни	-2317
▁озна	-2318
љене	-2319
дној	-2320
али	-2321
вски	-2322
▁добио	-2323
▁сезо	-2324
▁школ	-2325
вгу	-2326
шић	-2327
хије	-2328
▁кате	-2329
▁Мар	-2330
▁чека	-2331
▁људима	-2332
▁ваше	-2333
зан	-2334
▁нивоу	-2335
▁шест	-2336
рић	-2337
▁сигурно	-2338
▁Фо	-2339
▁уради	-2340
▁предузећа	-2341
▁став	-2342
▁Петро	-2343
▁спољ	-2344
▁поводом	-2345
▁друштва	-2346
тине	-2347
вамо	-2348
лност	-2349
гор	-2350
▁организације	-2351
▁њихове	-2352
▁потро	-2353
▁знача	-2354
била	-2355
▁мањи	-2356
▁здравстве	-2357
▁Сви	-2358
РЕ	-2359
▁подне	-2360
њо	-2361
вљи	-2362
▁Само	-2363
▁знам	-2364
пли	-2365
▁зла	-2366
мима	-2367
▁Ауто	-2368
вини	-2369
ниција	-2370
▁иденти	-2371
▁јану	-2372
▁зашто	-2373
▁побо	-2374
▁ћете	-2375
љење	-2376
▁сваком	-2377
▁X	-2378
стан	-2379
▁милијар	-2380
▁аутомо	-2381
▁ог	-2382
▁осим	-2383
▁фудба	-2384
▁сум	-2385
десе	-2386
▁Христо	-2387
▁Под	-2388
▁спрем	-2389
▁даје	-2390
▁опет	-2391
рну	-2392
▁људе	-2393
▁.	-2394
▁првен	-2395
▁сусре	-2396
гује	-2397
▁фотографи	-2398
дљи	-2399
▁кона	-2400
рица	-2401
НС	-2402
▁износи	-2403
▁сваког	-2404
▁морају	-2405
фу	-2406
▁пси	-2407
▁освоји	-2408
▁уопште	-2409
▁послу	-2410
▁каза	-2411
▁развоја	-2412
ћен	-2413
▁Зако	-2414
штине	-2415
▁библиоте	-2416
ган	-2417
▁вероватно	-2418
▁минута	-2419
▁наших	-2420
▁сасвим	-2421
мбар	-2422
▁језик	-2423
▁случај	-2424
▁мали	-2425
▁Спо	-2426
▁Светог	-2427
▁надлеж	-2428
▁човека	-2429
лти	-2430
логија	-2431
тд	-2432
▁присуство	-2433
▁уо	-2434
▁коли	-2435
▁мења	-2436
▁положа	-2437
носе	-2438
дер	-2439
▁површи	-2440
тивни	-2441
▁конта	-2442
▁Русија	-2443
▁обавља	-2444
▁никак	-2445
▁неким	-2446
▁самоу	-2447
▁поставља	-2448
▁Зна	-2449
лио	-2450
▁странке	-2451
▁мето	-2452
пер	-2453
▁дожи	-2454
▁документа	-2455
▁понаша	-2456
▁Кон	-2457
▁имала	-2458
▁постав	-2459
▁оти	-2460
▁кило	-2461
ТА	-2462
министра	-2463
ницама	-2464
сим	-2465
▁снаге	-2466
▁компаније	-2467
чити	-2468
▁норма	-2469
▁тео	-2470
▁новина	-2471
јих	-2472
▁компанија	-2473
▁Сре	-2474
▁саоп	-2475
▁дође	-2476
▁публи	-2477
▁Радо	-2478
▁степе	-2479
▁избор	-2480
▁сведо	-2481
▁каракте	-2482
▁свети	-2483
▁Вр	-2484
▁наша	-2485
▁информација	-2486
вица	-2487
жње	-2488
▁Шта	-2489
тског	-2490
нин	-2491
▁креди	-2492
тур	-2493
▁манифе	-2494
▁члана	-2495
▁Косову	-2496
ТИ	-2497
▁Миха	-2498
▁погледа	-2499
▁супро	-2500
▁кљу	-2501
▁односи	-2502
ваја	-2503
кедо	-2504
▁свеште	-2505
цего	-2506
▁организација	-2507
▁Анд	-2508
▁авгу	-2509
▁Сара	-2510
ИИ	-2511
вано	-2512
▁кома	-2513
сма	-2514
▁осни	-2515
бља	-2516
▁налазе	-2517
▁теро	-2518
▁квалитет	-2519
сних	-2520
▁плаћа	-2521
чен	-2522
▁другог	-2523
сну	-2524
▁снага	-2525
▁Гла	-2526
дар	-2527
▁тој	-2528
▁другом	-2529
▁професи	-2530
наца	-2531
рома	-2532
тиви	-2533
јских	-2534
▁неста	-2535
▁отвори	-2536
▁путу	-2537
▁практи	-2538
▁Кара	-2539
▁одра	-2540
рена	-2541
▁Алба	-2542
▁тренутку	-2543
▁тиме	-2544
▁очеки	-2545
▁зара	-2546
нче	-2547
▁прима	-2548
чије	-2549
праве	-2550
вановић	-2551
▁животу	-2552
кић	-2553
▁реци	-2554
▁медици	-2555
дну	-2556
▁Косово	-2557
бине	-2558
▁додао	-2559
▁цар	-2560
▁суко	-2561
чени	-2562
▁октобра	-2563
јим	-2564
▁маја	-2565
▁секре	-2566
јска	-2567
▁ефика	-2568
▁хрват	-2569
▁пуно	-2570
▁дефини	-2571
▁станов	-2572
▁рећи	-2573
▁Јер	-2574
▁омогућа	-2575
▁еле	-2576
тали	-2577
▁итд	-2578
ката	-2579
▁ква	-2580
▁прошле	-2581
▁наравно	-2582
▁припада	-2583
вност	-2584
▁бло	-2585
▁Европи	-2586
▁Украји	-2587
▁пензи	-2588
писи	-2589
▁Никола	-2590
▁броја	-2591
▁Министарства	-2592
љујући	-2593
рац	-2594
▁унапре	-2595
▁потребе	-2596
ђују	-2597
▁услове	-2598
▁информације	-2599
нтере	-2600
▁Запа	-2601
▁пројекат	-2602
нс	-2603
▁праз	-2604
▁почиње	-2605
▁средства	-2606
ћена	-2607
њег	-2608
мпи	-2609
▁Кад	-2610
▁нарочито	-2611
▁Влада	-2612
ћих	-2613
▁конферен	-2614
▁осигу	-2615
▁губи	-2616
ил	-2617
ОВ	-2618
чња	-2619
▁еконо	-2620
▁деца	-2621
▁позори	-2622
тру	-2623
РИ	-2624
▁уво	-2625
▁катего	-2626
нско	-2627
воља	-2628
▁процес	-2629
▁првог	-2630
▁стату	-2631
▁старо	-2632
▁Вучић	-2633
▁фебру	-2634
▁ота	-2635
▁бар	-2636
стоје	-2637
▁смислу	-2638
ране	-2639
▁разговара	-2640
▁ура	-2641
▁коло	-2642
▁центар	-2643
нца	-2644
рени	-2645
▁беспла	-2646
▁Ше	-2647
▁исте	-2648
▁Држа	-2649
▁некада	-2650
▁Уз	-2651
шњих	-2652
▁Ца	-2653
лена	-2654
▁покло	-2655
жени	-2656
десет	-2657
мор	-2658
вале	-2659
кад	-2660
вели	-2661
бој	-2662
сов	-2663
стре	-2664
▁сати	-2665
▁прогла	-2666
▁нова	-2667
▁заштиту	-2668
▁напада	-2669
▁Чи	-2670
▁одбране	-2671
▁иност	-2672
▁уређе	-2673
▁изд	-2674
▁саопште	-2675
▁децу	-2676
▁Митро	-2677
▁[	-2678
жили	-2679
▁Данас	-2680
▁РС	-2681
▁производа	-2682
▁савез	-2683
нцела	-2684
▁девој	-2685
▁високо	-2686
▁Бога	-2687
▁потенција	-2688
нту	-2689
▁Цркве	-2690
▁мислим	-2691
кна	-2692
жена	-2693
▁породице	-2694
▁Сла	-2695
лиса	-2696
рака	-2697
лној	-2698
▁Стефа	-2699
▁ослобо	-2700
▁српских	-2701
▁дату	-2702
▁наба	-2703
▁грађе	-2704
▁чланова	-2705
▁Право	-2706
чари	-2707
▁могла	-2708
▁омогући	-2709
▁пажњу	-2710
▁Пла	-2711
▁скло	-2712
▁жене	-2713
чак	-2714
▁потписа	-2715
где	-2716
▁адре	-2717
тном	-2718
▁резултат	-2719
▁телеви	-2720
▁неда	-2721
▁новог	-2722
жити	-2723
▁испред	-2724
▁заштите	-2725
дност	-2726
▁ученика	-2727
▁плани	-2728
чност	-2729
мера	-2730
▁десе	-2731
▁препору	-2732
гар	-2733
сник	-2734
▁побољ	-2735
▁тема	-2736
▁месеци	-2737
▁политике	-2738
▁повра	-2739
▁рије	-2740
тним	-2741
штина	-2742
▁Моск	-2743
▁стари	-2744
▁одлучи	-2745
▁стање	-2746
▁администра	-2747
▁дели	-2748
нисти	-2749
вник	-2750
▁прика	-2751
чној	-2752
мисли	-2753
▁саопшти	-2754
пар	-2755
▁игре	-2756
зом	-2757
мбе	-2758
▁Новом	-2759
▁марта	-2760
▁прими	-2761
▁оруж	-2762
ОС	-2763
▁села	-2764
▁кажу	-2765
▁врста	-2766
▁купо	-2767
▁односе	-2768
▁врши	-2769
▁узе	-2770
▁структу	-2771
тије	-2772
низа	-2773
▁сарадњи	-2774
важ	-2775
њена	-2776
жава	-2777
ким	-2778
ђене	-2779
▁напре	-2780
▁бого	-2781
▁далеко	-2782
▁ефе	-2783
▁свима	-2784
▁његовог	-2785
▁прихвати	-2786
СС	-2787
▁репре	-2788
▁хиљада	-2789
▁кући	-2790
▁новац	-2791
▁чине	-2792
▁стре	-2793
▁знања	-2794
▁страни	-2795
▁радова	-2796
▁Ипак	-2797
▁манифеста	-2798
▁нада	-2799
▁Ке	-2800
талија	-2801
▁осам	-2802
▁цело	-2803
▁простор	-2804
На	-2805
шан	-2806
оград	-2807
тности	-2808
▁земљу	-2809
лник	-2810
▁заједнице	-2811
▁септембра	-2812
▁Уколико	-2813
▁искључи	-2814
▁препозна	-2815
▁екс	-2816
нску	-2817
▁долара	-2818
▁циви	-2819
вак	-2820
рку	-2821
▁Хе	-2822
ум	-2823
шком	-2824
▁првом	-2825
▁доде	-2826
▁немају	-2827
▁његовим	-2828
▁гло	-2829
чима	-2830
▁прве	-2831
▁међутим	-2832
кида	-2833
▁садржи	-2834
фт	-2835
▁виси	-2836
▁Бого	-2837
▁врије	-2838
▁учеству	-2839
▁Током	-2840
ЛИ	-2841
▁кола	-2842
кса	-2843
▁постао	-2844
рса	-2845
▁јако	-2846
▁јавности	-2847
▁владе	-2848
ден	-2849
▁недоста	-2850
▁одо	-2851
▁укључу	-2852
▁смрти	-2853
▁стању	-2854
▁десет	-2855
▁реда	-2856
▁главни	-2857
▁неку	-2858
▁промо	-2859
▁Први	-2860
▁часо	-2861
▁нашим	-2862
▁ограни	-2863
▁политичке	-2864
▁дизај	-2865
рних	-2866
▁обзира	-2867
▁фести	-2868
▁извешта	-2869
▁пропа	-2870
▁изврши	-2871
ПС	-2872
гина	-2873
▁међунаро	-2874
▁Дакле	-2875
.,	-2876
▁нашој	-2877
▁којом	-2878
▁Херцего	-2879
лизације	-2880
▁обзиром	-2881
▁почетка	-2882
▁уви	-2883
бама	-2884
волу	-2885
дана	-2886
▁грађани	-2887
▁мета	-2888
тић	-2889
▁иниција	-2890
баци	-2891
▁априла	-2892
▁тела	-2893
▁почетком	-2894
▁прилику	-2895
▁учини	-2896
рила	-2897
жо	-2898
▁свр	-2899
чита	-2900
▁принци	-2901
▁изузетно	-2902
▁суп	-2903
▁јавно	-2904
▁општина	-2905
▁разлику	-2906
▁пада	-2907
▁Свето	-2908
▁борбе	-2909
▁бол	-2910
лини	-2911
▁способ	-2912
▁месеца	-2913
▁ђа	-2914
▁Удру	-2915
лер	-2916
њено	-2917
орђе	-2918
▁развија	-2919
дине	-2920
▁онај	-2921
▁бисте	-2922
▁преста	-2923
новића	-2924
вај	-2925
▁РТ	-2926
▁тј	-2927
сног	-2928
ал	-2929
▁односа	-2930
▁стручња	-2931
исто	-2932
▁захтева	-2933
▁Господ	-2934
▁страда	-2935
▁говоре	-2936
▁деси	-2937
лов	-2938
▁кар	-2939
▁мушка	-2940
▁амбаса	-2941
▁Цр	-2942
▁произвођа	-2943
▁наче	-2944
▁Црве	-2945
▁средстава	-2946
▁решење	-2947
▁свакодне	-2948
▁форма	-2949
пом	-2950
▁сваке	-2951
▁њихов	-2952
чена	-2953
▁избора	-2954
они	-2955
▁Горе	-2956
▁преноси	-2957
▁УН	-2958
▁инди	-2959
▁Председник	-2960
▁Краље	-2961
▁многе	-2962
▁нашем	-2963
▁одлуке	-2964
▁нисмо	-2965
▁просла	-2966
▁Министарство	-2967
▁насле	-2968
▁Тај	-2969
чешће	-2970
▁угро	-2971
ону	-2972
▁прева	-2973
кт	-2974
▁Наравно	-2975
▁добар	-2976
▁помену	-2977
зор	-2978
рама	-2979
▁навео	-2980
▁различитих	-2981
▁испод	-2982
▁приват	-2983
▁промени	-2984
▁покрета	-2985
▁задовољ	-2986
▁количи	-2987
▁професионал	-2988
▁свеча	-2989
▁тренутно	-2990
говоре	-2991
рина	-2992
▁традиционал	-2993
АН	-2994
▁жу	-2995
▁промене	-2996
ктив	-2997
▁моје	-2998
▁јула	-2999
▁пације	-3000
вода	-3001
▁молит	-3002
пр	-3003
▁мој	-3004
▁уметности	-3005
▁метара	-3006
дови	-3007
▁одлука	-3008
▁бисмо	-3009
▁испра	-3010
▁заме	-3011
кте	-3012
пио	-3013
▁југо	-3014
тила	-3015
▁везе	-3016
▁Брита	-3017
▁интереса	-3018
▁кућа	-3019
беле	-3020
тива	-3021
зији	-3022
▁универзи	-3023
тите	-3024
▁очекује	-3025
рине	-3026
▁опози	-3027
▁стаби	-3028
вора	-3029
▁услови	-3030
шни	-3031
▁нов	-3032
гију	-3033
тска	-3034
▁уживо	-3035
словен	-3036
ан	-3037
рату	-3038
▁важно	-3039
▁одбора	-3040
▁Кр	-3041
▁коле	-3042
▁схвати	-3043
▁једино	-3044
▁тиче	-3045
▁добили	-3046
▁становника	-3047
▁анали	-3048
шен	-3049
▁транс	-3050
▁улогу	-3051
▁анга	-3052
▁земљама	-3053
▁Русији	-3054
▁решења	-3055
▁телеф	-3056
▁францу	-3057
дри	-3058
▁постоја	-3059
љима	-3060
▁преци	-3061
▁бив	-3062
▁Сту	-3063
▁суда	-3064
сање	-3065
▁мени	-3066
▁предсједни	-3067
▁враћа	-3068
стер	-3069
Не	-3070
виће	-3071
▁истраживања	-3072
▁Што	-3073
▁извр	-3074
▁језику	-3075
▁Македо	-3076
▁широм	-3077
дро	-3078
▁заинтере	-3079
мер	-3080
▁размишља	-3081
лимо	-3082
▁лека	-3083
▁руке	-3084
▁уметни	-3085
пира	-3086
▁знају	-3087
рба	-3088
▁доноси	-3089
▁рату	-3090
▁заправо	-3091
▁разре	-3092
▁Војводине	-3093
▁трошко	-3094
▁представници	-3095
▁класи	-3096
жне	-3097
јни	-3098
▁пресу	-3099
пушта	-3100
▁уместо	-3101
сје	-3102
▁безбедности	-3103
▁Ан	-3104
▁јуче	-3105
дор	-3106
сним	-3107
▁Свети	-3108
чава	-3109
▁кампа	-3110
▁непри	-3111
▁ом	-3112
▁центру	-3113
▁неког	-3114
рише	-3115
мената	-3116
менту	-3117
▁такве	-3118
када	-3119
▁просе	-3120
тину	-3121
▁капита	-3122
▁младих	-3123
▁Међуна	-3124
ких	-3125
▁отпо	-3126
▁ризи	-3127
▁проши	-3128
▁школи	-3129
њени	-3130
вач	-3131
▁виду	-3132
▁репрезента	-3133
▁неких	-3134
▁узро	-3135
▁побољша	-3136
▁једини	-3137
тон	-3138
▁сарадњу	-3139
▁свакако	-3140
▁Црне	-3141
▁равно	-3142
жни	-3143
▁њој	-3144
▁великог	-3145
▁Слове	-3146
▁енгле	-3147
вину	-3148
▁створи	-3149
▁обећа	-3150
лације	-3151
ните	-3152
▁узима	-3153
лина	-3154
▁годинама	-3155
▁већа	-3156
▁регионал	-3157
▁инф	-3158
▁децембра	-3159
▁црно	-3160
разуме	-3161
▁прене	-3162
мокра	-3163
▁велику	-3164
▁комуника	-3165
кове	-3166
▁врсте	-3167
▁јавља	-3168
▁прево	-3169
▁постаје	-3170
▁СР	-3171
▁акту	-3172
▁брзи	-3173
▁изгра	-3174
▁новембра	-3175
▁серви	-3176
▁љубави	-3177
▁врху	-3178
▁Југославије	-3179
вимо	-3180
▁Стра	-3181
▁остали	-3182
▁заду	-3183
▁заслу	-3184
▁новим	-3185
▁почетку	-3186
▁недеље	-3187
шне	-3188
▁ат	-3189
њих	-3190
сада	-3191
▁праве	-3192
▁симбо	-3193
рме	-3194
рамо	-3195
▁уређа	-3196
ћени	-3197
▁територији	-3198
▁војске	-3199
▁већина	-3200
тео	-3201
▁добити	-3202
▁резултате	-3203
▁најпо	-3204
▁истиче	-3205
▁возила	-3206
▁аутор	-3207
▁фабри	-3208
▁км	-3209
▁посматра	-3210
▁реша	-3211
▁чет	-3212
▁друштво	-3213
тија	-3214
▁посту	-3215
▁изнена	-3216
▁повеза	-3217
ћим	-3218
▁Оно	-3219
▁ште	-3220
▁ставо	-3221
КО	-3222
▁српском	-3223
▁наћи	-3224
▁ваш	-3225
рите	-3226
▁Слобо	-3227
вице	-3228
▁изрази	-3229
▁републи	-3230
▁простора	-3231
▁Може	-3232
јне	-3233
стом	-3234
▁најмање	-3235
▁тело	-3236
▁љубав	-3237
▁Један	-3238
▁студија	-3239
▁кана	-3240
▁могло	-3241
штен	-3242
▁севе	-3243
▁глоба	-3244
чењу	-3245
▁Лаза	-3246
▁казао	-3247
▁огром	-3248
▁лак	-3249
▁Осим	-3250
▁ико	-3251
годишњи	-3252
▁приступ	-3253
▁регу	-3254
▁шу	-3255
▁музе	-3256
▁политички	-3257
▁новца	-3258
▁започе	-3259
▁последњих	-3260
▁суб	-3261
▁аутора	-3262
▁заним	-3263
▁такав	-3264
▁Бра	-3265
▁идеја	-3266
▁одлуку	-3267
дама	-3268
▁почео	-3269
▁компо	-3270
▁светског	-3271
▁представљају	-3272
▁оди	-3273
нској	-3274
▁сарадње	-3275
▁дао	-3276
▁Три	-3277
▁Друго	-3278
▁траја	-3279
ТЕ	-3280
ђењу	-3281
рци	-3282
▁преузе	-3283
▁Мла	-3284
▁врата	-3285
▁Европске	-3286
▁материјала	-3287
мова	-3288
▁дошло	-3289
▁патријар	-3290
▁стоји	-3291
▁чланови	-3292
▁Бања	-3293
димо	-3294
▁хла	-3295
▁омогућава	-3296
▁бира	-3297
▁дошао	-3298
мора	-3299
▁никад	-3300
▁текст	-3301
▁добије	-3302
▁Пав	-3303
▁капа	-3304
▁пријатељ	-3305
▁сачу	-3306
▁Мисли	-3307
▁показује	-3308
▁животи	-3309
дић	-3310
вача	-3311
рек	-3312
кат	-3313
▁црве	-3314
▁радника	-3315
▁окре	-3316
лозо	-3317
ровић	-3318
▁Тек	-3319
тица	-3320
▁бољи	-3321
▁Правосла	-3322
пија	-3323
▁вре	-3324
▁коментара	-3325
▁најваж	-3326
▁психо	-3327
▁очу	-3328
▁здравља	-3329
▁изнад	-3330
▁привре	-3331
▁нашу	-3332
▁ке	-3333
▁августа	-3334
нковић	-3335
▁укључујући	-3336
шњем	-3337
▁Посе	-3338
▁карактеристи	-3339
▁јединстве	-3340
гледу	-3341
▁догађаја	-3342
бер	-3343
▁њен	-3344
▁упозо	-3345
јно	-3346
▁Парти	-3347
▁припрема	-3348
▁експе	-3349
дује	-3350
▁својом	-3351
▁зву	-3352
▁мери	-3353
▁воле	-3354
кола	-3355
▁особе	-3356
▁Осно	-3357
▁јануара	-3358
▁факултета	-3359
метара	-3360
▁w	-3361
▁потра	-3362
раз	-3363
јана	-3364
тира	-3365
▁услуга	-3366
▁објасни	-3367
▁имена	-3368
▁снима	-3369
чено	-3370
▁функциони	-3371
▁ТВ	-3372
▁Раз	-3373
▁Мила	-3374
▁Пошто	-3375
вске	-3376
гна	-3377
▁широ	-3378
пут	-3379
дницима	-3380
цем	-3381
▁конкре	-3382
▁тежи	-3383
▁испла	-3384
▁смање	-3385
▁авио	-3386
▁реду	-3387
▁енерге	-3388
хват	-3389
▁путо	-3390
▁резе	-3391
▁профи	-3392
▁подразуме	-3393
▁свје	-3394
▁низ	-3395
▁њихова	-3396
▁хума	-3397
▁квалитета	-3398
▁нао	-3399
▁моби	-3400
▁ски	-3401
▁Скупштине	-3402
▁једној	-3403
▁Гу	-3404
▁субо	-3405
▁приче	-3406
▁убр	-3407
▁региону	-3408
▁дубо	-3409
▁Тра	-3410
▁горе	-3411
▁Крагује	-3412
▁поги	-3413
▁чиме	-3414
вци	-3415
вљен	-3416
НЕ	-3417
▁моћ	-3418
▁историји	-3419
▁веће	-3420
▁становништва	-3421
▁погре	-3422
▁заба	-3423
▁актуе	-3424
▁његовом	-3425
тских	-3426
жено	-3427
▁природ	-3428
▁мере	-3429
вског	-3430
▁историје	-3431
кују	-3432
▁београд	-3433
▁смрт	-3434
Ми	-3435
кви	-3436
▁темпе	-3437
▁једноставно	-3438
штву	-3439
▁Центра	-3440
▁реши	-3441
рис	-3442
▁Још	-3443
бла	-3444
тање	-3445
КА	-3446
▁Сад	-3447
▁свије	-3448
леп	-3449
▁план	-3450
▁учешће	-3451
вар	-3452
нули	-3453
▁тврди	-3454
▁изаз	-3455
▁држави	-3456
клу	-3457
▁тера	-3458
реј	-3459
зв	-3460
▁нову	-3461
▁народу	-3462
▁институција	-3463
▁влади	-3464
▁коришћења	-3465
РО	-3466
ИЈ	-3467
МА	-3468
▁Гру	-3469
▁тржишту	-3470
▁н	-3471
▁тему	-3472
▁енергије	-3473
▁банка	-3474
вела	-3475
▁сја	-3476
▁хране	-3477
▁сећа	-3478
љив	-3479
▁опште	-3480
чили	-3481
вило	-3482
▁маши	-3483
лите	-3484
▁коали	-3485
▁сагла	-3486
рсе	-3487
▁неком	-3488
▁локалне	-3489
▁банке	-3490
▁Сараје	-3491
чевић	-3492
стр	-3493
▁оствари	-3494
цх	-3495
Де	-3496
▁читао	-3497
▁средине	-3498
нили	-3499
ћима	-3500
гледно	-3501
▁медија	-3502
▁Ана	-3503
▁Метохи	-3504
▁развоју	-3505
▁покри	-3506
▁будућности	-3507
▁приказа	-3508
ћете	-3509
▁пријатељи	-3510
▁апсо	-3511
▁апо	-3512
▁Гор	-3513
пове	-3514
▁споме	-3515
▁директно	-3516
▁року	-3517
ВО	-3518
▁дешава	-3519
▁датум	-3520
▁сву	-3521
▁ученици	-3522
▁однос	-3523
ВА	-3524
ЛА	-3525
оло	-3526
▁период	-3527
од	-3528
▁изазо	-3529
▁школу	-3530
жња	-3531
јић	-3532
▁Србима	-3533
▁усле	-3534
сред	-3535
▁истовремено	-3536
▁добри	-3537
пије	-3538
▁циљу	-3539
▁мона	-3540
ћује	-3541
▁зби	-3542
▁сата	-3543
▁нагласио	-3544
▁цена	-3545
▁управе	-3546
▁аплика	-3547
ксуа	-3548
▁одигра	-3549
јским	-3550
▁доћи	-3551
▁иначе	-3552
теље	-3553
лама	-3554
▁Чу	-3555
дак	-3556
▁гаран	-3557
хом	-3558
рби	-3559
▁догоди	-3560
▁шан	-3561
влада	-3562
чића	-3563
▁сама	-3564
▁диплома	-3565
▁веро	-3566
вета	-3567
рала	-3568
правда	-3569
▁политику	-3570
▁упла	-3571
▁Гори	-3572
▁осталих	-3573
▁покраји	-3574
▁студи	-3575
▁чињеница	-3576
▁Кар	-3577
љених	-3578
▁ката	-3579
▁великим	-3580
▁искључиво	-3581
▁руски	-3582
▁дости	-3583
▁стално	-3584
ријама	-3585
▁лоше	-3586
▁другу	-3587
▁одржана	-3588
пто	-3589
▁свему	-3590
вал	-3591
▁јача	-3592
структу	-3593
▁Новог	-3594
▁кажем	-3595
▁кримина	-3596
▁ови	-3597
▁Алексан	-3598
▁боје	-3599
▁нега	-3600
▁Коми	-3601
▁мишљење	-3602
▁Више	-3603
▁допу	-3604
▁Хрватске	-3605
▁објашња	-3606
▁дакле	-3607
▁Мађа	-3608
▁зад	-3609
▁капаци	-3610
▁имате	-3611
нила	-3612
нула	-3613
▁бави	-3614
руп	-3615
▁добра	-3616
▁сушти	-3617
менти	-3618
ствима	-3619
ис	-3620
▁оште	-3621
▁колек	-3622
▁подсти	-3623
▁Ради	-3624
▁захваљујући	-3625
▁Милан	-3626
▁промена	-3627
ДП	-3628
тивних	-3629
▁уса	-3630
▁овако	-3631
▁њихово	-3632
▁истим	-3633
▁сутра	-3634
љиви	-3635
▁јавног	-3636
▁архите	-3637
▁почетак	-3638
лин	-3639
лника	-3640
▁Богу	-3641
▁меха	-3642
▁наз	-3643
▁седи	-3644
▁остале	-3645
рже	-3646
бје	-3647
сфе	-3648
њују	-3649
▁тури	-3650
пископ	-3651
▁штампа	-3652
чене	-3653
▁Српска	-3654
▁прошло	-3655
нат	-3656
▁купа	-3657
▁дају	-3658
▁температу	-3659
▁послове	-3660
▁рели	-3661
▁обично	-3662
седа	-3663
▁њу	-3664
▁смањи	-3665
▁величи	-3666
вљује	-3667
▁пис	-3668
▁сајту	-3669
▁траже	-3670
▁закључи	-3671
▁Други	-3672
ћено	-3673
ИС	-3674
▁одбор	-3675
цифи	-3676
▁омлади	-3677
ђивање	-3678
▁реализа	-3679
▁одржан	-3680
▁директора	-3681
▁селу	-3682
▁друштву	-3683
▁прото	-3684
▁Оба	-3685
▁чије	-3686
▁слике	-3687
▁обавеза	-3688
▁Био	-3689
▁карије	-3690
▁фебруара	-3691
▁породица	-3692
▁парламента	-3693
вка	-3694
▁Закона	-3695
сен	-3696
▁убије	-3697
ригина	-3698
▁Комента	-3699
тиве	-3700
▁тзв	-3701
▁Александра	-3702
▁различите	-3703
љива	-3704
▁логи	-3705
▁Милоше	-3706
▁броју	-3707
▁остаје	-3708
КС	-3709
▁трећи	-3710
▁запослених	-3711
▁Њи	-3712
шим	-3713
▁отац	-3714
▁наставља	-3715
▁руку	-3716
▁мусли	-3717
▁самоста	-3718
▁агре	-3719
▁Ису	-3720
▁фон	-3721
фици	-3722
▁полиције	-3723
▁којег	-3724
▁састав	-3725
део	-3726
▁укупно	-3727
нић	-3728
реа	-3729
▁хоте	-3730
▁чести	-3731
зно	-3732
▁њихових	-3733
пара	-3734
▁подручју	-3735
▁боја	-3736
шавања	-3737
▁ситуација	-3738
▁почела	-3739
▁тачно	-3740
▁Владимир	-3741
тике	-3742
▁зависи	-3743
ков	-3744
стина	-3745
▁Ши	-3746
ркос	-3747
тери	-3748
јевима	-3749
мију	-3750
▁искуства	-3751
▁процеса	-3752
За	-3753
▁великих	-3754
▁просве	-3755
▁кне	-3756
▁Спа	-3757
▁Јован	-3758
▁неопходно	-3759
тује	-3760
▁предлог	-3761
▁милијарди	-3762
▁уто	-3763
▁Ново	-3764
▁приста	-3765
▁уку	-3766
пркос	-3767
лак	-3768
ласка	-3769
тика	-3770
ћење	-3771
тивног	-3772
▁манастира	-3773
рава	-3774
НО	-3775
зда	-3776
▁слуша	-3777
▁траје	-3778
▁Или	-3779
ров	-3780
▁непре	-3781
▁наво	-3782
▁онима	-3783
▁Универзитета	-3784
▁сајта	-3785
▁крајем	-3786
носа	-3787
ступи	-3788
▁Америка	-3789
▁ву	-3790
сију	-3791
▁напред	-3792
▁сед	-3793
▁иностран	-3794
зму	-3795
▁Зла	-3796
▁прочита	-3797
сон	-3798
ндо	-3799
имна	-3800
▁престо	-3801
▁Миле	-3802
▁добила	-3803
▁кор	-3804
▁Саду	-3805
▁Треба	-3806
ружа	-3807
▁правила	-3808
▁попула	-3809
▁тексто	-3810
▁градоначе	-3811
сад	-3812
▁туристи	-3813
▁образовања	-3814
▁Тада	-3815
▁предмета	-3816
▁њим	-3817
▁потпуности	-3818
скоро	-3819
ксе	-3820
▁Док	-3821
▁Аутор	-3822
▁његову	-3823
шна	-3824
рним	-3825
говори	-3826
▁дати	-3827
рању	-3828
▁комо	-3829
▁сајт	-3830
▁доче	-3831
▁политика	-3832
▁проблеме	-3833
кне	-3834
жалост	-3835
лагања	-3836
јском	-3837
▁подсе	-3838
вљена	-3839
▁овога	-3840
▁податке	-3841
▁Изра	-3842
тивна	-3843
▁Погледа	-3844
▁задржана	-3845
▁осе	-3846
▁Кри	-3847
▁убе	-3848
▁страница	-3849
▁макси	-3850
▁Марко	-3851
љно	-3852
кцију	-3853
▁распра	-3854
▁Прво	-3855
▁акције	-3856
▁наука	-3857
▁вредност	-3858
рице	-3859
▁синди	-3860
▁професор	-3861
▁поједина	-3862
▁Христа	-3863
▁интернет	-3864
▁каме	-3865
▁личности	-3866
▁корисника	-3867
▁Полити	-3868
стоја	-3869
▁долазе	-3870
љак	-3871
▁гдје	-3872
▁Мислим	-3873
▁искористи	-3874
▁Ам	-3875
▁креа	-3876
▁подсећа	-3877
▁игру	-3878
▁компле	-3879
▁одред	-3880
▁турни	-3881
▁доступ	-3882
▁називом	-3883
вена	-3884
▁изборима	-3885
▁иду	-3886
▁какав	-3887
ционе	-3888
▁преу	-3889
▁удружења	-3890
рској	-3891
▁домаћин	-3892
▁Национал	-3893
▁Бож	-3894
▁дужи	-3895
▁васпита	-3896
зад	-3897
▁националне	-3898
▁простору	-3899
МЕ	-3900
▁Попо	-3901
▁видети	-3902
▁прибли	-3903
▁користити	-3904
▁Доди	-3905
▁стати	-3906
▁доказа	-3907
▁разлог	-3908
▁времену	-3909
▁сматрају	-3910
▁клуба	-3911
▁рела	-3912
мске	-3913
▁прописа	-3914
▁оф	-3915
▁путе	-3916
▁великом	-3917
▁Велико	-3918
▁накна	-3919
▁СП	-3920
▁порта	-3921
▁Институ	-3922
▁бивши	-3923
▁претпо	-3924
▁организацији	-3925
▁укра	-3926
▁повре	-3927
▁прихо	-3928
▁органа	-3929
▁душе	-3930
▁медији	-3931
▁цео	-3932
▁старе	-3933
▁Уче	-3934
▁добре	-3935
▁партнер	-3936
вачи	-3937
▁хоће	-3938
лас	-3939
▁утицај	-3940
▁текста	-3941
▁привред	-3942
▁пошту	-3943
јуће	-3944
▁захтев	-3945
▁установа	-3946
▁нуди	-3947
▁запошља	-3948
▁Васи	-3949
▁Лон	-3950
▁српска	-3951
▁желите	-3952
▁грађеви	-3953
ступан	-3954
▁Бран	-3955
▁Брисе	-3956
рои	-3957
нијим	-3958
▁Можда	-3959
▁њиховим	-3960
▁Зем	-3961
јн	-3962
жењу	-3963
▁Наиме	-3964
дере	-3965
▁бивше	-3966
▁говор	-3967
▁канцела	-3968
▁чија	-3969
▁нару	-3970
▁осталог	-3971
▁ангажо	-3972
▁проф	-3973
▁постане	-3974
кну	-3975
тле	-3976
▁упа	-3977
▁сваку	-3978
▁црква	-3979
▁корак	-3980
▁знамо	-3981
▁држи	-3982
▁доприне	-3983
▁интегра	-3984
▁Бро	-3985
▁политичких	-3986
клања	-3987
▁Федера	-3988
▁ноћи	-3989
▁оригина	-3990
рто	-3991
логију	-3992
▁опреде	-3993
▁оставља	-3994
▁значаја	-3995
рном	-3996
▁њене	-3997
хра	-3998
дећи	-3999
▁син	-4000
▁раке	-4001
пан	-4002
сања	-4003
▁дошли	-4004
▁прати	-4005
▁прав	-4006
▁несре	-4007
▁огла	-4008
јна	-4009
▁мале	-4010
▁коришћење	-4011
▁крви	-4012
▁цене	-4013
▁државу	-4014
▁револу	-4015
▁борби	-4016
тања	-4017
▁мада	-4018
▁осве	-4019
▁министра	-4020
▁Кру	-4021
▁припреми	-4022
▁веку	-4023
фри	-4024
▁резултати	-4025
▁Звез	-4026
▁најчешће	-4027
туре	-4028
▁помогне	-4029
▁самом	-4030
сији	-4031
▁поздра	-4032
▁Јовановић	-4033
▁Републици	-4034
кру	-4035
цка	-4036
жене	-4037
сми	-4038
▁услуге	-4039
▁ПО	-4040
жбу	-4041
рује	-4042
једна	-4043
▁доступан	-4044
▁концеп	-4045
жна	-4046
▁апсолу	-4047
ест	-4048
▁недавно	-4049
▁самог	-4050
▁близи	-4051
▁манда	-4052
▁успешно	-4053
▁организује	-4054
▁непосред	-4055
чила	-4056
▁реше	-4057
▁манастир	-4058
▁Ст	-4059
▁производње	-4060
сној	-4061
▁мозе	-4062
▁годишње	-4063
▁Упра	-4064
▁вријеме	-4065
дња	-4066
▁ИИ	-4067
рене	-4068
▁другој	-4069
▁њиховог	-4070
▁паро	-4071
▁информи	-4072
▁прилика	-4073
▁СНС	-4074
▁чвр	-4075
▁Било	-4076
полити	-4077
РС	-4078
▁испи	-4079
▁конста	-4080
▁дис	-4081
▁младе	-4082
▁утакмице	-4083
▁Црној	-4084
▁последње	-4085
▁преки	-4086
моћ	-4087
▁лично	-4088
▁ситуације	-4089
влашће	-4090
▁руске	-4091
▁кратко	-4092
▁вода	-4093
нча	-4094
тној	-4095
после	-4096
▁љуби	-4097
▁животне	-4098
▁меда	-4099
▁Мај	-4100
▁тима	-4101
▁онога	-4102
▁Одлу	-4103
▁науке	-4104
▁образовање	-4105
▁зеле	-4106
▁истори	-4107
▁разматра	-4108
мосфе	-4109
▁оправда	-4110
▁поко	-4111
чиће	-4112
тере	-4113
потре	-4114
▁институције	-4115
▁немогу	-4116
љиве	-4117
шо	-4118
▁здравље	-4119
▁надо	-4120
▁Субо	-4121
''	-4122
▁р	-4123
новима	-4124
▁државне	-4125
▁водо	-4126
▁испита	-4127
▁јавне	-4128
▁одговорност	-4129
рано	-4130
▁унутар	-4131
љом	-4132
раструкту	-4133
▁будућност	-4134
▁Св	-4135
▁буџета	-4136
▁искуство	-4137
▁ставља	-4138
лили	-4139
▁Ауст	-4140
▁нави	-4141
▁савет	-4142
▁морамо	-4143
▁километара	-4144
цеп	-4145
▁остало	-4146
▁инста	-4147
▁могући	-4148
▁говорио	-4149
▁Црква	-4150
▁задатак	-4151
▁епи	-4152
▁От	-4153
бину	-4154
▁праву	-4155
▁инстру	-4156
▁сезоне	-4157
▁масо	-4158
▁радни	-4159
▁недељу	-4160
▁суо	-4161
јевић	-4162
Ма	-4163
гита	-4164
рент	-4165
▁клуб	-4166
▁процеду	-4167
▁коначно	-4168
▁куп	-4169
▁свето	-4170
▁тума	-4171
▁комплек	-4172
▁поступак	-4173
▁пројеката	-4174
▁челу	-4175
▁фудбал	-4176
▁представника	-4177
Ко	-4178
▁видим	-4179
▁погледу	-4180
▁студената	-4181
▁пову	-4182
▁конте	-4183
▁мена	-4184
▁опста	-4185
▁експло	-4186
▁уговора	-4187
дука	-4188
▁тексту	-4189
▁Обра	-4190
▁Ваши	-4191
▁Генера	-4192
чаје	-4193
▁кине	-4194
▁знак	-4195
ћења	-4196
▁Нова	-4197
▁ције	-4198
▁идеје	-4199
▁развије	-4200
▁објављени	-4201
тиву	-4202
▁партије	-4203
лита	-4204
▁студије	-4205
логу	-4206
▁Бер	-4207
▁укључи	-4208
▁пусти	-4209
▁постала	-4210
▁набав	-4211
вам	-4212
говору	-4213
▁уговор	-4214
доб	-4215
мит	-4216
виле	-4217
жних	-4218
сама	-4219
▁заједница	-4220
▁гори	-4221
▁Хрватској	-4222
▁странка	-4223
▁плане	-4224
▁филма	-4225
▁схвата	-4226
▁песни	-4227
▁историју	-4228
▁моја	-4229
▁руског	-4230
▁Погледајте	-4231
тки	-4232
▁ан	-4233
▁секу	-4234
▁процесу	-4235
▁приступа	-4236
хт	-4237
▁рачун	-4238
▁споразума	-4239
▁Србе	-4240
▁шампи	-4241
▁придру	-4242
▁снагу	-4243
лише	-4244
▁инфраструкту	-4245
ријски	-4246
▁бомбар	-4247
▁границе	-4248
▁законом	-4249
▁различитим	-4250
▁плу	-4251
▁истом	-4252
▁коман	-4253
▁ног	-4254
▁Ове	-4255
зем	-4256
▁седни	-4257
▁супру	-4258
▁спрово	-4259
▁Ис	-4260
▁Панче	-4261
▁собом	-4262
Па	-4263
▁Џе	-4264
▁облику	-4265
▁акција	-4266
▁потребна	-4267
▁меч	-4268
▁написао	-4269
▁такмичења	-4270
▁санк	-4271
рин	-4272
▁уру	-4273
вју	-4274
▁Ђорђе	-4275
▁ДС	-4276
▁позив	-4277
▁улица	-4278
▁мир	-4279
ђених	-4280
▁његових	-4281
▁тур	-4282
▁Дире	-4283
▁првих	-4284
▁напусти	-4285
Да	-4286
▁Сме	-4287
▁указа	-4288
▁атмосфе	-4289
▁последица	-4290
▁грађанима	-4291
лд	-4292
▁Николић	-4293
ВЕ	-4294
писује	-4295
▁прете	-4296
▁Код	-4297
▁Пољ	-4298
ковима	-4299
▁саврше	-4300
▁покушава	-4301
▁своја	-4302
▁затворе	-4303
▁бази	-4304
▁додатни	-4305
▁обавез	-4306
бур	-4307
сите	-4308
дју	-4309
ворен	-4310
▁природе	-4311
▁споразум	-4312
▁писмо	-4313
сном	-4314
▁аутомоби	-4315
▁емо	-4316
▁циљем	-4317
слава	-4318
▁одржи	-4319
кор	-4320
▁пољопривре	-4321
▁Мног	-4322
▁Чо	-4323
▁извор	-4324
▁проле	-4325
ww	-4326
▁неве	-4327
хап	-4328
▁Програ	-4329
▁указује	-4330
јам	-4331
љо	-4332
јум	-4333
▁ае	-4334
ријске	-4335
СП	-4336
▁гор	-4337
▁подразумева	-4338
толи	-4339
▁кошта	-4340
▁имо	-4341
▁саобраћај	-4342
▁ги	-4343
сила	-4344
▁јавност	-4345
вени	-4346
чани	-4347
▁поти	-4348
констру	-4349
▁изградњу	-4350
▁секретар	-4351
▁Фу	-4352
▁предме	-4353
▁Зоран	-4354
▁команда	-4355
ћом	-4356
▁констру	-4357
фико	-4358
сс	-4359
▁усме	-4360
мић	-4361
▁Шпа	-4362
▁ресу	-4363
фина	-4364
шног	-4365
▁зове	-4366
▁соли	-4367
▁ускоро	-4368
▁Коментари	-4369
нита	-4370
вљено	-4371
▁наи	-4372
▁Кине	-4373
▁награде	-4374
нцима	-4375
▁екипа	-4376
▁образ	-4377
▁имам	-4378
▁служи	-4379
▁сексуа	-4380
или	-4381
▁купи	-4382
▁градова	-4383
▁зао	-4384
ћој	-4385
▁стварно	-4386
школ	-4387
хија	-4388
▁Оста	-4389
▁гости	-4390
▁коментар	-4391
▁мом	-4392
▁Буга	-4393
▁Вас	-4394
▁спроводи	-4395
како	-4396
зације	-4397
▁брига	-4398
▁Драган	-4399
▁Демокра	-4400
▁премијер	-4401
▁воза	-4402
тимо	-4403
▁плану	-4404
▁борбу	-4405
▁испору	-4406
▁објављи	-4407
▁Тео	-4408
▁девет	-4409
▁околности	-4410
▁дуже	-4411
▁специфи	-4412
ЕД	-4413
▁ћи	-4414
▁висе	-4415
▁Слу	-4416
▁радом	-4417
стар	-4418
▁дуг	-4419
▁Овде	-4420
ВИ	-4421
▁искре	-4422
▁''	-4423
▁Велики	-4424
▁објавио	-4425
▁многим	-4426
.)	-4427
▁културу	-4428
▁ЗА	-4429
▁иска	-4430
▁занима	-4431
БА	-4432
▁Цо	-4433
▁ска	-4434
▁Другог	-4435
▁одреди	-4436
▁систему	-4437
▁поду	-4438
▁разреда	-4439
▁интензи	-4440
▁предмет	-4441
▁уније	-4442
гори	-4443
▁пољопривред	-4444
▁видимо	-4445
▁ов	-4446
тице	-4447
▁забеле	-4448
▁близини	-4449
▁дије	-4450
шњу	-4451
▁Наш	-4452
▁лакше	-4453
▁електри	-4454
▁филозо	-4455
▁Устав	-4456
▁реализо	-4457
тиван	-4458
▁посетио	-4459
▁услова	-4460
вљени	-4461
▁нађе	-4462
▁навија	-4463
штава	-4464
▁делега	-4465
▁прихвата	-4466
цк	-4467
лози	-4468
▁одржава	-4469
Ка	-4470
▁Међународ	-4471
зање	-4472
▁мреже	-4473
ћене	-4474
▁војне	-4475
▁кризе	-4476
▁Тр	-4477
стој	-4478
ког	-4479
▁доно	-4480
▁поште	-4481
▁општини	-4482
▁играча	-4483
▁јавних	-4484
▁мрт	-4485
њим	-4486
▁прилаго	-4487
тион	-4488
▁Дома	-4489
▁саопштењу	-4490
▁Вам	-4491
▁војника	-4492
▁полиција	-4493
▁аутомобила	-4494
јску	-4495
▁основне	-4496
▁форму	-4497
шких	-4498
▁сирома	-4499
▁близу	-4500
тском	-4501
шена	-4502
▁наф	-4503
▁карти	-4504
▁војска	-4505
▁уписа	-4506
▁оца	-4507
дове	-4508
лизам	-4509
тура	-4510
▁назив	-4511
чуна	-4512
ших	-4513
▁изван	-4514
▁пат	-4515
▁Српској	-4516
▁значајно	-4517
▁песме	-4518
нство	-4519
▁зграде	-4520
▁жртве	-4521
▁част	-4522
сић	-4523
фија	-4524
степе	-4525
▁подацима	-4526
ваца	-4527
▁модел	-4528
▁амерички	-4529
▁ред	-4530
▁основних	-4531
жавања	-4532
▁књигу	-4533
лагање	-4534
▁диску	-4535
ваних	-4536
▁понекад	-4537
▁нес	-4538
▁цркви	-4539
▁терену	-4540
▁радика	-4541
▁Поче	-4542
▁успео	-4543
▁болест	-4544
▁региона	-4545
▁срца	-4546
▁прежи	-4547
чице	-4548
▁Бор	-4549
▁скуп	-4550
▁воду	-4551
▁краље	-4552
▁таква	-4553
▁Марковић	-4554
хат	-4555
▁Архи	-4556
▁окупа	-4557
▁Петровић	-4558
▁објашњава	-4559
▁скупштине	-4560
▁титу	-4561
▁додаје	-4562
раца	-4563
▁Добро	-4564
вољан	-4565
▁типа	-4566
зме	-4567
▁српским	-4568
▁родитеља	-4569
▁референ	-4570
▁Удружења	-4571
рмо	-4572
времену	-4573
▁медијима	-4574
▁програму	-4575
▁европске	-4576
▁Михаи	-4577
љка	-4578
тла	-4579
▁Жа	-4580
▁ситуацију	-4581
▁прио	-4582
кци	-4583
▁Већ	-4584
▁фору	-4585
золу	-4586
▁тренутка	-4587
▁коруп	-4588
▁производи	-4589
▁Аген	-4590
▁раст	-4591
чници	-4592
▁Инди	-4593
▁успех	-4594
лектуа	-4595
▁садржај	-4596
гно	-4597
▁Без	-4598
▁јединица	-4599
▁изази	-4600
▁Народне	-4601
▁Сер	-4602
▁нају	-4603
▁Загре	-4604
слов	-4605
▁оног	-4606
▁Патријар	-4607
▁италија	-4608
▁месец	-4609
▁производњу	-4610
▁ави	-4611
▁уза	-4612
▁другачије	-4613
▁прате	-4614
▁следеће	-4615
▁слободе	-4616
▁остане	-4617
тник	-4618
▁косов	-4619
јеве	-4620
▁обавезе	-4621
▁агенција	-4622
▁математи	-4623
▁даљи	-4624
▁паке	-4625
▁пони	-4626
▁Кли	-4627
▁остао	-4628
▁објеката	-4629
▁страну	-4630
▁насеља	-4631
▁кандидата	-4632
▁наци	-4633
▁изврше	-4634
▁кро	-4635
лимпи	-4636
▁петак	-4637
▁обраћа	-4638
▁интервју	-4639
▁очигледно	-4640
Ра	-4641
дији	-4642
▁зу	-4643
▁Вашинг	-4644
▁наводе	-4645
▁одвија	-4646
▁креи	-4647
▁пост	-4648
лација	-4649
▁Лондо	-4650
▁поена	-4651
Са	-4652
роват	-4653
НУ	-4654
▁напад	-4655
▁лого	-4656
▁листа	-4657
▁новом	-4658
▁Циљ	-4659
▁деј	-4660
▁базе	-4661
▁интересу	-4662
лен	-4663
тове	-4664
▁помаже	-4665
▁обухвата	-4666
▁пото	-4667
▁заста	-4668
▁марке	-4669
▁улици	-4670
▁државни	-4671
сципли	-4672
▁међународне	-4673
УП	-4674
лови	-4675
▁стања	-4676
▁никако	-4677
родни	-4678
жног	-4679
▁пресе	-4680
▁територије	-4681
▁спољних	-4682
ковића	-4683
▁Балкану	-4684
▁адресу	-4685
▁ала	-4686
▁разо	-4687
▁неи	-4688
▁потроша	-4689
▁Миро	-4690
ЕС	-4691
нику	-4692
▁лоп	-4693
▁конкурен	-4694
ОР	-4695
пише	-4696
▁рок	-4697
вачке	-4698
▁богат	-4699
ритет	-4700
▁максима	-4701
дим	-4702
жује	-4703
рено	-4704
▁дио	-4705
▁речено	-4706
▁Пари	-4707
дора	-4708
▁подаци	-4709
▁авиона	-4710
▁подручја	-4711
▁СА	-4712
▁српско	-4713
▁Еу	-4714
▁многих	-4715
▁назива	-4716
вентуа	-4717
▁инспе	-4718
▁њеног	-4719
пје	-4720
▁позива	-4721
▁Руму	-4722
▁заштити	-4723
▁знатно	-4724
тност	-4725
▁другачи	-4726
кве	-4727
▁Тро	-4728
њене	-4729
лизација	-4730
▁напла	-4731
▁практично	-4732
▁дре	-4733
▁показују	-4734
▁баве	-4735
▁разне	-4736
▁реви	-4737
▁скре	-4738
▁суботу	-4739
листа	-4740
лет	-4741
рте	-4742
▁шеф	-4743
▁начина	-4744
▁Орга	-4745
▁вама	-4746
▁хеми	-4747
▁свога	-4748
▁мле	-4749
▁књижевности	-4750
бера	-4751
▁Дуна	-4752
▁мала	-4753
▁Путин	-4754
▁прегледа	-4755
▁негде	-4756
▁изборе	-4757
▁комисије	-4758
▁сним	-4759
▁телефон	-4760
▁руковод	-4761
▁награда	-4762
▁АП	-4763
▁шо	-4764
▁Мора	-4765
▁производе	-4766
▁Кори	-4767
▁гроб	-4768
▁деци	-4769
▁такоз	-4770
▁Об	-4771
▁цу	-4772
▁гол	-4773
▁пак	-4774
▁служби	-4775
▁прилично	-4776
узда	-4777
▁стро	-4778
▁презента	-4779
шњој	-4780
▁наступа	-4781
▁Петар	-4782
▁прива	-4783
▁радити	-4784
▁папи	-4785
▁Њу	-4786
▁повла	-4787
▁најпре	-4788
там	-4789
шио	-4790
венције	-4791
▁Савета	-4792
▁статисти	-4793
▁Литур	-4794
▁фирме	-4795
▁цену	-4796
▁најнови	-4797
▁реконстру	-4798
▁ноћ	-4799
лину	-4800
▁брат	-4801
▁коор	-4802
▁познати	-4803
зана	-4804
Ве	-4805
виду	-4806
▁будући	-4807
▁безбедност	-4808
▁слику	-4809
▁терори	-4810
▁познато	-4811
▁одуста	-4812
▁непозна	-4813
пију	-4814
систи	-4815
▁употребу	-4816
▁студент	-4817
▁лет	-4818
▁дуга	-4819
▁доводи	-4820
шким	-4821
▁српској	-4822
▁там	-4823
▁сцена	-4824
▁колега	-4825
▁лицен	-4826
▁сина	-4827
▁Драго	-4828
јев	-4829
▁самим	-4830
значај	-4831
шавање	-4832
менте	-4833
▁контролу	-4834
▁родитељи	-4835
▁мрежа	-4836
▁уг	-4837
▁нукле	-4838
▁поступку	-4839
▁поручио	-4840
▁механи	-4841
јеви	-4842
▁разних	-4843
вера	-4844
ваног	-4845
дљиво	-4846
стојан	-4847
▁Бр	-4848
▁Чак	-4849
▁православне	-4850
бичаје	-4851
▁садрже	-4852
▁лист	-4853
▁меша	-4854
▁почели	-4855
▁новинар	-4856
▁њиховом	-4857
▁софт	-4858
▁разно	-4859
▁понавља	-4860
▁редовно	-4861
▁интересо	-4862
▁економске	-4863
ес	-4864
▁европских	-4865
терна	-4866
▁Једно	-4867
▁корист	-4868
▁засно	-4869
▁Текст	-4870
▁положај	-4871
раних	-4872
▁располо	-4873
хни	-4874
▁гео	-4875
▁посете	-4876
▁једним	-4877
▁интелектуа	-4878
▁онлине	-4879
▁заинтересова	-4880
▁књизи	-4881
▁форми	-4882
рла	-4883
бору	-4884
▁фро	-4885
▁прера	-4886
▁пољу	-4887
▁прошлости	-4888
▁ухап	-4889
▁мар	-4890
▁судија	-4891
▁терористи	-4892
чица	-4893
▁срце	-4894
▁коша	-4895
▁Драга	-4896
▁клије	-4897
дње	-4898
▁потпред	-4899
▁промови	-4900
▁Факул	-4901
▁језе	-4902
▁радови	-4903
▁доживља	-4904
зну	-4905
тао	-4906
▁поже	-4907
▁Јована	-4908
▁резултата	-4909
жем	-4910
▁РТС	-4911
▁познат	-4912
▁осталим	-4913
▁евентуа	-4914
▁наставе	-4915
▁привати	-4916
▁отворена	-4917
▁њихови	-4918
тими	-4919
▁статус	-4920
▁тржиште	-4921
▁истина	-4922
▁Нишу	-4923
▁Јевре	-4924
јановић	-4925
лове	-4926
▁плате	-4927
▁јединице	-4928
рас	-4929
шића	-4930
▁затра	-4931
▁леп	-4932
▁причу	-4933
▁награду	-4934
▁југословен	-4935
уча	-4936
▁мати	-4937
▁мигра	-4938
тр	-4939
▁продају	-4940
▁економски	-4941
▁Фран	-4942
▁купу	-4943
▁реке	-4944
▁партне	-4945
сер	-4946
руса	-4947
▁изо	-4948
▁повр	-4949
ноци	-4950
▁грађане	-4951
▁преузима	-4952
▁кора	-4953
▁видели	-4954
▁избегли	-4955
▁чланица	-4956
▁садржаја	-4957
▁Бањалу	-4958
ктори	-4959
▁Зашто	-4960
▁гимна	-4961
▁исла	-4962
▁обно	-4963
▁лан	-4964
▁Једи	-4965
јско	-4966
▁Фили	-4967
▁Додик	-4968
▁Општи	-4969
▁слободу	-4970
▁Интерне	-4971
▁допринос	-4972
▁глас	-4973
стави	-4974
▁продаје	-4975
▁притисак	-4976
▁Ско	-4977
▁знање	-4978
▁Сава	-4979
▁поступка	-4980
чака	-4981
вљују	-4982
▁облик	-4983
▁кисе	-4984
▁мера	-4985
▁окупља	-4986
▁вере	-4987
▁тужила	-4988
пова	-4989
▁поруке	-4990
▁Неки	-4991
ционог	-4992
нај	-4993
чем	-4994
▁Цар	-4995
ствено	-4996
▁остати	-4997
тона	-4998
▁имови	-4999
▁најви	-5000
сници	-5001
▁устав	-5002
▁помоћу	-5003
▁одређене	-5004
▁подстица	-5005
▁дигита	-5006
пископа	-5007
▁њихову	-5008
љан	-5009
чана	-5010
▁усвоји	-5011
▁учесника	-5012
▁постигну	-5013
▁активи	-5014
▁другима	-5015
▁воли	-5016
▁извора	-5017
▁испуња	-5018
▁граница	-5019
тови	-5020
зама	-5021
▁старији	-5022
ционих	-5023
▁периода	-5024
▁нивоа	-5025
▁успоставља	-5026
▁досада	-5027
▁опреме	-5028
▁слично	-5029
▁његови	-5030
▁настави	-5031
штење	-5032
▁идео	-5033
бова	-5034
вији	-5035
тивним	-5036
Бе	-5037
шњим	-5038
Мо	-5039
▁Република	-5040
▁територија	-5041
▁технологија	-5042
▁укло	-5043
мњи	-5044
тен	-5045
▁Висо	-5046
борато	-5047
▁америчке	-5048
▁звезда	-5049
▁завршио	-5050
▁олак	-5051
▁додатно	-5052
тво	-5053
пера	-5054
▁потреба	-5055
▁сео	-5056
▁Босне	-5057
▁Радио	-5058
▁(„	-5059
▁комбина	-5060
лике	-5061
тника	-5062
лео	-5063
▁превише	-5064
▁ИС	-5065
▁идеа	-5066
▁улази	-5067
▁беле	-5068
▁остала	-5069
▁овлашће	-5070
▁мулти	-5071
▁породици	-5072
дбе	-5073
▁едука	-5074
нина	-5075
▁Вики	-5076
▁листи	-5077
▁првој	-5078
▁телефо	-5079
▁партија	-5080
▁скра	-5081
▁цара	-5082
▁тржишта	-5083
лл	-5084
▁мишљења	-5085
▁згло	-5086
▁зависности	-5087
▁Сирији	-5088
рони	-5089
▁испити	-5090
▁његовој	-5091
лића	-5092
▁уређена	-5093
▁суве	-5094
вици	-5095
вајца	-5096
шавају	-5097
▁Трам	-5098
фије	-5099
ментима	-5100
▁ег	-5101
▁сиро	-5102
▁наоружа	-5103
нтро	-5104
▁скри	-5105
употре	-5106
▁,,	-5107
▁инжење	-5108
ОГ	-5109
▁подршке	-5110
лизма	-5111
▁Уста	-5112
занти	-5113
▁везу	-5114
▁почне	-5115
▁чињенице	-5116
▁студенти	-5117
▁полици	-5118
зора	-5119
чника	-5120
▁мајка	-5121
▁Игра	-5122
шкој	-5123
▁гене	-5124
▁жеље	-5125
спи	-5126
шних	-5127
▁Ваље	-5128
▁Ху	-5129
њама	-5130
▁понеде	-5131
▁стварала	-5132
форме	-5133
нду	-5134
бити	-5135
▁изведе	-5136
▁прези	-5137
▁прву	-5138
▁Ђо	-5139
▁Њихо	-5140
▁битно	-5141
▁поглед	-5142
ктору	-5143
▁пам	-5144
жавају	-5145
фти	-5146
▁Његово	-5147
тици	-5148
▁Једна	-5149
▁Немачке	-5150
има	-5151
мила	-5152
▁рукама	-5153
▁порт	-5154
▁сила	-5155
јали	-5156
▁неиз	-5157
▁војни	-5158
▁посети	-5159
љује	-5160
▁факултет	-5161
▁будемо	-5162
▁вец	-5163
дило	-5164
▁стр	-5165
јекто	-5166
▁Анти	-5167
▁рецимо	-5168
ћина	-5169
▁жеља	-5170
▁младо	-5171
▁Црно	-5172
▁Енгле	-5173
▁чим	-5174
▁непро	-5175
шле	-5176
ликом	-5177
▁немо	-5178
▁фотографија	-5179
вети	-5180
▁село	-5181
жавање	-5182
▁какве	-5183
▁модела	-5184
▁украји	-5185
▁слободно	-5186
▁екипе	-5187
чније	-5188
терију	-5189
▁саме	-5190
стрибу	-5191
▁бизни	-5192
▁последице	-5193
▁побу	-5194
тације	-5195
▁заузе	-5196
▁истог	-5197
▁транспо	-5198
▁расте	-5199
▁безбедно	-5200
тропо	-5201
▁макар	-5202
љем	-5203
▁Иначе	-5204
мла	-5205
▁утиче	-5206
▁утакмица	-5207
▁контек	-5208
▁одговори	-5209
ного	-5210
▁Иван	-5211
▁оним	-5212
▁руководи	-5213
▁аспе	-5214
лошког	-5215
▁мржње	-5216
џић	-5217
▁злочина	-5218
▁самоупра	-5219
▁самоуправе	-5220
].	-5221
▁Књи	-5222
▁контра	-5223
▁успели	-5224
маил	-5225
тост	-5226
нства	-5227
▁упркос	-5228
бић	-5229
▁Студе	-5230
▁микро	-5231
сити	-5232
▁референду	-5233
▁насиља	-5234
▁основи	-5235
▁тени	-5236
▁главу	-5237
ходно	-5238
▁аутома	-5239
▁детета	-5240
▁Уједиње	-5241
▁бесплатно	-5242
▁уго	-5243
▁алба	-5244
▁учествују	-5245
мак	-5246
▁апосто	-5247
▁џе	-5248
▁пој	-5249
▁њена	-5250
мани	-5251
жите	-5252
мији	-5253
▁насло	-5254
године	-5255
▁Закон	-5256
▁Милош	-5257
▁произ	-5258
зивање	-5259
▁делом	-5260
▁онако	-5261
Ни	-5262
▁веб	-5263
соција	-5264
▁протек	-5265
мски	-5266
вреди	-5267
▁Михај	-5268
▁ситуацији	-5269
▁видљи	-5270
▁описа	-5271
новац	-5272
▁дали	-5273
▁драго	-5274
▁интег	-5275
▁проме	-5276
▁терми	-5277
▁Др	-5278
тским	-5279
▁топло	-5280
▁морате	-5281
▁усвоје	-5282
▁Дан	-5283
▁хте	-5284
▁Метохији	-5285
Би	-5286
▁забри	-5287
КИ	-5288
штена	-5289
вин	-5290
▁краља	-5291
▁прео	-5292
▁преди	-5293
▁поза	-5294
чују	-5295
▁рекли	-5296
▁правде	-5297
вед	-5298
граф	-5299
▁разлика	-5300
▁индивиду	-5301
▁оспо	-5302
▁технологије	-5303
▁област	-5304
▁Богороди	-5305
▁одабра	-5306
▁најо	-5307
▁учествовали	-5308
▁лета	-5309
▁годишњи	-5310
▁аутобу	-5311
▁пје	-5312
писима	-5313
▁злоупотре	-5314
▁Ваш	-5315
▁аде	-5316
▁дневно	-5317
▁саставу	-5318
▁аерод	-5319
▁састанак	-5320
нами	-5321
штени	-5322
▁наводно	-5323
тинг	-5324
▁офици	-5325
▁произвођача	-5326
ванђе	-5327
▁таквих	-5328
▁Русију	-5329
▁истражива	-5330
▁највећих	-5331
▁небе	-5332
▁јест	-5333
▁раста	-5334
▁спремни	-5335
▁еу	-5336
▁групи	-5337
▁морао	-5338
▁инвали	-5339
▁Свако	-5340
▁деценија	-5341
▁генерације	-5342
▁шире	-5343
▁рођен	-5344
▁Гора	-5345
▁целе	-5346
бде	-5347
шени	-5348
▁установе	-5349
▁Мој	-5350
▁силе	-5351
▁симпто	-5352
вника	-5353
▁треће	-5354
▁спада	-5355
▁Марија	-5356
▁пријем	-5357
▁конференцији	-5358
▁Наши	-5359
број	-5360
▁мисле	-5361
▁способности	-5362
носу	-5363
▁Шко	-5364
▁превази	-5365
▁одавно	-5366
▁државља	-5367
▁победе	-5368
▁званично	-5369
ДС	-5370
јт	-5371
▁примје	-5372
▁Захва	-5373
лошке	-5374
▁напу	-5375
▁пролази	-5376
јс	-5377
вока	-5378
▁геноци	-5379
▁средњо	-5380
▁показао	-5381
јка	-5382
▁јос	-5383
▁Постоји	-5384
▁премијера	-5385
▁пренос	-5386
▁воље	-5387
▁Многи	-5388
▁пореме	-5389
▁Кне	-5390
▁Сваки	-5391
▁сигна	-5392
▁Године	-5393
▁фотографије	-5394
зар	-5395
▁гласова	-5396
▁ког	-5397
▁варија	-5398
▁биљ	-5399
преме	-5400
десетих	-5401
▁створе	-5402
▁објављен	-5403
ут	-5404
▁Реги	-5405
▁аргу	-5406
▁никакве	-5407
▁Руске	-5408
▁политичка	-5409
▁једина	-5410
▁лиценцом	-5411
▁Ауторство	-5412
ограф	-5413
▁национа	-5414
мовић	-5415
▁бројне	-5416
▁искљу	-5417
▁подноси	-5418
станти	-5419
▁литера	-5420
коном	-5421
▁спорта	-5422
▁факултету	-5423
▁сали	-5424
▁посланика	-5425
▁одговарају	-5426
▁морати	-5427
▁еви	-5428
▁трет	-5429
▁Смедере	-5430
▁бомбардо	-5431
ус	-5432
тињ	-5433
▁повећање	-5434
▁спасе	-5435
рвати	-5436
▁Сребре	-5437
▁озбиљно	-5438
▁привреде	-5439
лошких	-5440
▁знате	-5441
мин	-5442
▁Петра	-5443
▁двоји	-5444
▁реаго	-5445
тама	-5446
▁узра	-5447
▁оружја	-5448
То	-5449
мове	-5450
▁лико	-5451
▁Млади	-5452
▁прекр	-5453
лизацију	-5454
▁бла	-5455
тости	-5456
▁желимо	-5457
сати	-5458
▁седници	-5459
▁финансија	-5460
▁крста	-5461
▁празник	-5462
▁Спе	-5463
▁етни	-5464
▁Колико	-5465
▁генерал	-5466
▁изложбе	-5467
▁ресто	-5468
▁квалите	-5469
▁алтерна	-5470
▁Сарајеву	-5471
▁ошт	-5472
▁обзир	-5473
▁великој	-5474
▁местима	-5475
▁Лука	-5476
▁средње	-5477
▁демон	-5478
▁контроле	-5479
јској	-5480
▁бици	-5481
▁главе	-5482
▁постати	-5483
▁Мари	-5484
▁инова	-5485
▁сарадња	-5486
Бо	-5487
▁Ужи	-5488
▁поступа	-5489
▁освојио	-5490
▁Велика	-5491
▁пријатеља	-5492
▁пријаве	-5493
▁ДА	-5494
рови	-5495
▁делатности	-5496
▁Дачић	-5497
▁кућу	-5498
▁необи	-5499
▁остав	-5500
цки	-5501
▁хар	-5502
▁верујем	-5503
▁лаборато	-5504
▁Нор	-5505
▁сне	-5506
довољ	-5507
▁вита	-5508
▁утисак	-5509
▁шума	-5510
▁Најве	-5511
▁илу	-5512
▁контину	-5513
▁спроведе	-5514
мишље	-5515
▁Управо	-5516
▁Вука	-5517
кохо	-5518
▁тести	-5519
ДА	-5520
ланд	-5521
мично	-5522
стражи	-5523
▁тврде	-5524
вска	-5525
ману	-5526
▁Анто	-5527
лажу	-5528
▁предсједник	-5529
▁заро	-5530
▁комунисти	-5531
вљење	-5532
▁менаџ	-5533
▁север	-5534
▁правилима	-5535
СА	-5536
нода	-5537
▁локалних	-5538
цје	-5539
▁кале	-5540
▁Босни	-5541
▁људских	-5542
▁манастиру	-5543
▁Поповић	-5544
▁послода	-5545
▁предност	-5546
▁КиМ	-5547
▁савлада	-5548
ЛЕ	-5549
▁тенде	-5550
▁правосу	-5551
▁агенције	-5552
рде	-5553
воја	-5554
▁Мили	-5555
▁Града	-5556
▁Велике	-5557
▁утицаја	-5558
▁заједнички	-5559
гер	-5560
▁оте	-5561
▁сни	-5562
▁лати	-5563
▁унутрашњих	-5564
ногра	-5565
▁бори	-5566
▁Уме	-5567
јећа	-5568
▁Ота	-5569
▁бана	-5570
ДЕ	-5571
мио	-5572
горе	-5573
▁извори	-5574
▁испа	-5575
▁учествује	-5576
▁консу	-5577
рског	-5578
▁ули	-5579
▁Спорт	-5580
▁храма	-5581
▁сусрет	-5582
▁наставити	-5583
▁Ево	-5584
▁ума	-5585
▁мемо	-5586
▁Наро	-5587
▁Првог	-5588
▁споља	-5589
▁пија	-5590
▁знао	-5591
▁погла	-5592
▁најавио	-5593
▁критерију	-5594
▁доктор	-5595
Но	-5596
Делити	-5597
▁састоји	-5598
▁ели	-5599
▁одржавање	-5600
▁случајевима	-5601
тско	-5602
▁учинити	-5603
гхт	-5604
▁сат	-5605
▁фоку	-5606
тана	-5607
▁дона	-5608
▁наредних	-5609
▁државних	-5610
▁ск	-5611
▁насеље	-5612
▁разум	-5613
▁отворено	-5614
▁Предсједни	-5615
▁публика	-5616
тпу	-5617
▁маги	-5618
▁активно	-5619
▁памет	-5620
МО	-5621
ђивања	-5622
ср	-5623
манд	-5624
сани	-5625
▁Затим	-5626
▁Александ	-5627
▁капи	-5628
лева	-5629
савље	-5630
▁фонда	-5631
▁Можете	-5632
▁увреде	-5633
стић	-5634
▁прикупља	-5635
▁Итали	-5636
▁чува	-5637
јке	-5638
▁материјал	-5639
▁такмичење	-5640
▁Музе	-5641
мци	-5642
ћују	-5643
▁Ниш	-5644
▁једни	-5645
▁стамбе	-5646
▁ћирили	-5647
чаре	-5648
▁најбољих	-5649
▁улице	-5650
▁претходно	-5651
▁Култу	-5652
мице	-5653
▁коментаре	-5654
▁одлази	-5655
▁КО	-5656
вану	-5657
▁неви	-5658
▁каква	-5659
▁Сједиње	-5660
▁непријатељ	-5661
▁Теле	-5662
▁пожа	-5663
логе	-5664
▁Прва	-5665
▁Бли	-5666
▁Деј	-5667
▁окупи	-5668
▁стварање	-5669
▁НЕ	-5670
нема	-5671
лизује	-5672
БС	-5673
▁оми	-5674
▁сигур	-5675
▁комисија	-5676
▁штету	-5677
▁појача	-5678
▁националног	-5679
▁Ком	-5680
нтан	-5681
▁окон	-5682
▁КС	-5683
▁коре	-5684
▁графи	-5685
▁словен	-5686
▁предвиђа	-5687
жном	-5688
ришу	-5689
▁функције	-5690
▁радили	-5691
штења	-5692
▁паре	-5693
лила	-5694
▁компози	-5695
▁ваља	-5696
▁имовине	-5697
срп	-5698
▁верује	-5699
▁иностранству	-5700
▁сумње	-5701
▁манифестације	-5702
▁дро	-5703
њење	-5704
зација	-5705
▁детаљ	-5706
▁преглед	-5707
▁Душан	-5708
▁Меди	-5709
▁брани	-5710
буна	-5711
▁стара	-5712
▁правцу	-5713
▁вике	-5714
▁урба	-5715
прода	-5716
▁разним	-5717
▁обавезу	-5718
▁привла	-5719
▁најста	-5720
▁”	-5721
мис	-5722
▁служба	-5723
▁беше	-5724
▁највеће	-5725
▁страних	-5726
▁перспе	-5727
▁разговора	-5728
▁Херцеговине	-5729
јао	-5730
▁облика	-5731
▁поготово	-5732
▁састанку	-5733
ИА	-5734
▁порука	-5735
▁пројекту	-5736
▁Милу	-5737
▁присуству	-5738
товима	-5739
▁листу	-5740
▁услед	-5741
▁пракси	-5742
▁преоста	-5743
▁Приликом	-5744
▁Прије	-5745
▁сцени	-5746
▁подржава	-5747
▁нез	-5748
▁догађај	-5749
▁направи	-5750
▁неми	-5751
▁светски	-5752
▁Ад	-5753
▁светском	-5754
Ја	-5755
▁ул	-5756
ћева	-5757
▁доказ	-5758
▁инфе	-5759
▁шири	-5760
▁лидер	-5761
▁постојања	-5762
▁бру	-5763
▁библиотеке	-5764
сника	-5765
▁опро	-5766
ен	-5767
▁прошлог	-5768
нуло	-5769
▁носе	-5770
▁делује	-5771
▁уобичаје	-5772
лски	-5773
града	-5774
▁казне	-5775
▁Војске	-5776
▁подигну	-5777
▁континуи	-5778
шењу	-5779
▁излази	-5780
▁ика	-5781
нијег	-5782
▁Љуби	-5783
▁цркву	-5784
ђани	-5785
▁сфе	-5786
▁телефона	-5787
▁осла	-5788
▁славе	-5789
▁нисте	-5790
▁Српски	-5791
▁прихва	-5792
▁грани	-5793
▁именом	-5794
лији	-5795
▁оружје	-5796
▁сукоба	-5797
тој	-5798
▁Ката	-5799
▁заступ	-5800
▁економије	-5801
▁најзначај	-5802
▁плат	-5803
▁чисто	-5804
раг	-5805
▁Покраји	-5806
креди	-5807
▁циклу	-5808
▁жал	-5809
▁звезде	-5810
▁музике	-5811
▁аналити	-5812
▁радног	-5813
▁индивидуа	-5814
▁школама	-5815
нау	-5816
▁Воји	-5817
▁универзитета	-5818
▁коже	-5819
тацију	-5820
▁позвао	-5821
▁истраживање	-5822
▁задовољство	-5823
▁дове	-5824
▁формирања	-5825
рца	-5826
▁Европска	-5827
ПО	-5828
▁исту	-5829
▁убрза	-5830
▁леги	-5831
довима	-5832
▁питањима	-5833
▁узме	-5834
▁светог	-5835
бљи	-5836
љана	-5837
▁низа	-5838
▁Хрватска	-5839
▁Украјине	-5840
▁националних	-5841
бини	-5842
▁већу	-5843
▁списа	-5844
▁желим	-5845
▁јесу	-5846
▁селек	-5847
▁дубоко	-5848
▁подви	-5849
▁избори	-5850
▁показали	-5851
▁Савеза	-5852
▁одржати	-5853
чо	-5854
мац	-5855
влади	-5856
▁професора	-5857
мр	-5858
штима	-5859
▁дистрибу	-5860
▁дисципли	-5861
нило	-5862
рану	-5863
▁шеће	-5864
▁депо	-5865
▁узбу	-5866
лт	-5867
миње	-5868
▁уки	-5869
▁вежба	-5870
▁некако	-5871
Ви	-5872
▁СЕ	-5873
▁ванред	-5874
сму	-5875
▁топ	-5876
тивном	-5877
▁вратио	-5878
ару	-5879
љда	-5880
▁Фонда	-5881
▁мјесе	-5882
јко	-5883
рата	-5884
▁душа	-5885
ЊЕ	-5886
▁њеном	-5887
▁десило	-5888
▁доведе	-5889
▁показала	-5890
јер	-5891
лагању	-5892
▁посје	-5893
▁основа	-5894
▁Тхе	-5895
шено	-5896
▁спи	-5897
гова	-5898
љености	-5899
▁истину	-5900
▁заве	-5901
▁култура	-5902
▁исх	-5903
зацију	-5904
▁Канцела	-5905
▁спра	-5906
▁одбрану	-5907
▁прилике	-5908
▁Метохије	-5909
жим	-5910
онд	-5911
систе	-5912
лета	-5913
▁Фор	-5914
▁важан	-5915
▁плана	-5916
▁дух	-5917
▁двори	-5918
▁мишљењу	-5919
▁одлучио	-5920
▁пројекто	-5921
▁свакодневно	-5922
▁фази	-5923
▁св	-5924
▁херо	-5925
▁Представ	-5926
▁незапосле	-5927
▁уне	-5928
▁комуна	-5929
▁одобре	-5930
▁пољопривреде	-5931
▁Тур	-5932
▁кости	-5933
▁одговорности	-5934
▁освр	-5935
▁координа	-5936
▁Иде	-5937
▁Срем	-5938
▁мира	-5939
▁отпа	-5940
▁донео	-5941
▁људска	-5942
▁власник	-5943
оне	-5944
▁саопштио	-5945
вот	-5946
рове	-5947
▁ученицима	-5948
▁БЕ	-5949
▁њено	-5950
▁Карађ	-5951
▁Нисам	-5952
▁квадра	-5953
▁округа	-5954
▁напомену	-5955
▁носио	-5956
▁популар	-5957
јде	-5958
▁њеним	-5959
▁незна	-5960
▁Немачкој	-5961
▁шампиона	-5962
дитељ	-5963
▁паме	-5964
▁Акаде	-5965
▁Христос	-5966
▁Кла	-5967
довић	-5968
▁целог	-5969
ЈЕ	-5970
▁Америци	-5971
▁управљање	-5972
▁радове	-5973
▁полица	-5974
▁одакле	-5975
▁представник	-5976
гр	-5977
▁чланак	-5978
▁јавним	-5979
▁опасност	-5980
▁проблеми	-5981
јег	-5982
▁новинара	-5983
▁Исла	-5984
▁изву	-5985
▁врсту	-5986
▁конзу	-5987
▁највећа	-5988
вајање	-5989
▁орије	-5990
▁инсисти	-5991
жним	-5992
жених	-5993
▁пропу	-5994
валу	-5995
▁огледа	-5996
▁српску	-5997
▁молитве	-5998
▁уми	-5999
товић	-6000
▁дочека	-6001
▁линије	-6002
▁очима	-6003
знати	-6004
товао	-6005
дница	-6006
▁милион	-6007
▁Господа	-6008
▁државног	-6009
▁Могу	-6010
▁слабо	-6011
▁успје	-6012
▁Организа	-6013
▁благода	-6014
▁Председни	-6015
лс	-6016
▁пала	-6017
▁претра	-6018
цно	-6019
▁ху	-6020
▁закону	-6021
▁листе	-6022
▁оптере	-6023
▁наредне	-6024
пне	-6025
▁алкохо	-6026
▁двије	-6027
▁ево	-6028
▁четвртак	-6029
пора	-6030
▁уведе	-6031
РАД	-6032
▁Шу	-6033
▁Његова	-6034
▁радници	-6035
▁саобраћаја	-6036
▁уте	-6037
▁пато	-6038
▁радимо	-6039
▁пријатељима	-6040
▁Томи	-6041
▁донесе	-6042
ћан	-6043
▁изба	-6044
љава	-6045
▁Москви	-6046
▁покрет	-6047
▁представе	-6048
ртава	-6049
дела	-6050
▁Пришти	-6051
▁предузеће	-6052
мпу	-6053
▁Бошња	-6054
▁површине	-6055
▁социјалне	-6056
▁баца	-6057
▁анализи	-6058
▁разговор	-6059
▁Француске	-6060
нут	-6061
▁стигао	-6062
парт	-6063
сили	-6064
▁неод	-6065
нцу	-6066
ђењем	-6067
▁ставове	-6068
▁припадника	-6069
рша	-6070
запа	-6071
▁Европа	-6072
шну	-6073
▁цени	-6074
▁школо	-6075
▁посебан	-6076
▁целу	-6077
▁Макси	-6078
▁правом	-6079
▁ува	-6080
▁светло	-6081
▁објекта	-6082
▁подршка	-6083
▁господин	-6084
▁значајан	-6085
▁Сан	-6086
▁Рим	-6087
▁најлеп	-6088
сман	-6089
гара	-6090
▁нере	-6091
▁умје	-6092
▁стопа	-6093
▁савета	-6094
▁захвали	-6095
годишње	-6096
▁свести	-6097
▁предавања	-6098
▁случајева	-6099
▁уједно	-6100
сана	-6101
▁трени	-6102
▁какву	-6103
▁прелази	-6104
▁културно	-6105
▁рје	-6106
▁Митропо	-6107
▁Ива	-6108
▁Оче	-6109
▁функцију	-6110
▁подно	-6111
▁историја	-6112
▁буџет	-6113
▁руских	-6114
▁међународним	-6115
▁нечи	-6116
▁Константи	-6117
▁стри	-6118
▁Ара	-6119
жују	-6120
▁дом	-6121
▁изви	-6122
▁расту	-6123
▁савеза	-6124
бере	-6125
▁Сле	-6126
▁албу	-6127
▁гради	-6128
▁заинтересо	-6129
▁јавни	-6130
▁конкурс	-6131
▁потребан	-6132
еб	-6133
хопло	-6134
▁наре	-6135
▁наставак	-6136
▁немогуће	-6137
кому	-6138
сира	-6139
▁бет	-6140
▁Ниша	-6141
▁Онда	-6142
▁малих	-6143
▁ретко	-6144
▁Јапа	-6145
▁лете	-6146
▁суду	-6147
▁идеју	-6148
▁припрем	-6149
▁целокуп	-6150
верза	-6151
тивну	-6152
вору	-6153
▁Најбо	-6154
▁цо	-6155
▁ока	-6156
▁Коре	-6157
▁хиљаде	-6158
▁уђе	-6159
▁кухи	-6160
▁карактера	-6161
▁борба	-6162
▁одговарајући	-6163
▁лега	-6164
▁миро	-6165
▁зграда	-6166
▁политици	-6167
▁остр	-6168
▁сав	-6169
вачки	-6170
▁односима	-6171
▁партнера	-6172
поште	-6173
▁полако	-6174
▁Главни	-6175
▁попра	-6176
▁изре	-6177
▁сино	-6178
▁Италија	-6179
▁политичког	-6180
вроп	-6181
▁Тадић	-6182
веко	-6183
њак	-6184
▁аманд	-6185
▁просторијама	-6186
▁Цари	-6187
▁Црна	-6188
▁Крије	-6189
нута	-6190
▁извештај	-6191
▁Федерације	-6192
▁лекара	-6193
▁резолу	-6194
нки	-6195
▁Нау	-6196
кцији	-6197
▁трпе	-6198
▁наредном	-6199
цке	-6200
▁добру	-6201
▁отишао	-6202
▁земљишта	-6203
▁час	-6204
▁несто	-6205
▁фестивала	-6206
▁кућ	-6207
▁Људи	-6208
▁Афри	-6209
▁Министарству	-6210
▁вести	-6211
▁уништи	-6212
▁лицу	-6213
ана	-6214
гови	-6215
▁тачке	-6216
▁немамо	-6217
▁заузима	-6218
▁интересе	-6219
▁библиотека	-6220
▁Прави	-6221
▁улога	-6222
▁оценио	-6223
зове	-6224
▁Наша	-6225
ЦА	-6226
гама	-6227
▁Пози	-6228
▁фанта	-6229
стрва	-6230
▁Анђе	-6231
▁Напо	-6232
▁нећемо	-6233
▁наго	-6234
▁Центар	-6235
▁разлике	-6236
▁појединих	-6237
▁претходне	-6238
вођа	-6239
▁новча	-6240
▁појаве	-6241
▁Скупштини	-6242
▁правима	-6243
▁понедељак	-6244
▁храбро	-6245
▁позната	-6246
До	-6247
▁Слободан	-6248
ђо	-6249
▁Програм	-6250
▁Хвала	-6251
▁постали	-6252
▁операције	-6253
▁Универзитет	-6254
јтив	-6255
▁акцију	-6256
▁лидера	-6257
▁превен	-6258
лију	-6259
прича	-6260
▁Прет	-6261
▁свакој	-6262
▁светске	-6263
▁претвори	-6264
▁комонс	-6265
љењу	-6266
▁читав	-6267
▁припреме	-6268
▁Кријејтив	-6269
▁кама	-6270
▁злочине	-6271
▁позоришта	-6272
▁тона	-6273
▁двадесет	-6274
▁балка	-6275
▁природи	-6276
▁отк	-6277
▁таквим	-6278
ДИ	-6279
▁Иза	-6280
▁фено	-6281
▁архитекту	-6282
▁објашње	-6283
▁ље	-6284
▁тебе	-6285
▁Балкана	-6286
▁обезбеди	-6287
▁апсолутно	-6288
рсу	-6289
▁активностима	-6290
▁Брани	-6291
▁делова	-6292
▁сигуран	-6293
▁храну	-6294
▁стварања	-6295
▁нашао	-6296
▁минима	-6297
▁Свете	-6298
▁осећај	-6299
▁модерни	-6300
▁Кор	-6301
собно	-6302
▁уред	-6303
▁хтео	-6304
▁покаже	-6305
▁десетак	-6306
▁Хрвати	-6307
▁проблемима	-6308
▁димен	-6309
▁писац	-6310
Про	-6311
▁Реч	-6312
▁сл	-6313
▁апе	-6314
▁сег	-6315
грани	-6316
▁исе	-6317
▁тки	-6318
▁цве	-6319
▁вешта	-6320
▁играју	-6321
▁сектора	-6322
▁изградње	-6323
▁вина	-6324
▁октобар	-6325
ницом	-6326
▁дођу	-6327
▁Турске	-6328
▁Сам	-6329
▁Кова	-6330
▁неспо	-6331
▁става	-6332
▁домина	-6333
▁радних	-6334
▁отворен	-6335
▁сагласност	-6336
тари	-6337
▁Оде	-6338
вљене	-6339
▁сумња	-6340
▁аку	-6341
годишњег	-6342
▁америчког	-6343
▁наставника	-6344
▁припадници	-6345
▁сан	-6346
▁Стога	-6347
▁парки	-6348
▁проба	-6349
▁одсу	-6350
▁срећ	-6351
ђају	-6352
мовима	-6353
▁институцијама	-6354
▁митропо	-6355
циде	-6356
▁катастро	-6357
шина	-6358
▁очеку	-6359
▁интерес	-6360
▁перспекти	-6361
▁изглед	-6362
▁ОШ	-6363
▁објаснио	-6364
▁употребе	-6365
▁надлежности	-6366
▁Сред	-6367
▁одје	-6368
▁посље	-6369
▁представницима	-6370
јача	-6371
▁Вук	-6372
▁изабран	-6373
▁индустрије	-6374
▁бре	-6375
проду	-6376
▁Дода	-6377
▁изјаве	-6378
▁нација	-6379
▁опрем	-6380
▁спрема	-6381
▁нпр	-6382
▁важи	-6383
▁колу	-6384
▁просвете	-6385
цхе	-6386
▁победу	-6387
▁пословања	-6388
лона	-6389
▁Нека	-6390
▁маса	-6391
▁међувремену	-6392
▁Ови	-6393
▁конф	-6394
▁јавном	-6395
гији	-6396
▁жртава	-6397
шним	-6398
▁нажалост	-6399
▁Исти	-6400
▁Лазаре	-6401
зде	-6402
▁Горан	-6403
шевић	-6404
▁некој	-6405
рце	-6406
▁позицију	-6407
ЛО	-6408
▁регистра	-6409
чина	-6410
▁река	-6411
▁дрве	-6412
▁лије	-6413
▁брита	-6414
десетак	-6415
дели	-6416
▁ускла	-6417
▁сру	-6418
▁хап	-6419
▁Савез	-6420
▁високе	-6421
даго	-6422
▁лето	-6423
▁настао	-6424
▁опора	-6425
▁поседује	-6426
▁предстоје	-6427
▁деценије	-6428
▁недеља	-6429
▁школске	-6430
▁доди	-6431
тића	-6432
▁клима	-6433
▁потребне	-6434
шити	-6435
▁износ	-6436
▁пли	-6437
▁проро	-6438
▁тачка	-6439
КЕ	-6440
▁понашање	-6441
▁сусе	-6442
ам	-6443
осве	-6444
▁угра	-6445
▁њених	-6446
▁смисао	-6447
▁међусоб	-6448
▁присуствовали	-6449
љака	-6450
▁муслиман	-6451
▁Постоје	-6452
▁одељења	-6453
који	-6454
шном	-6455
▁ток	-6456
терија	-6457
сси	-6458
мица	-6459
▁море	-6460
▁човеку	-6461
▁непосредно	-6462
▁спорти	-6463
▁Европу	-6464
▁режима	-6465
▁чињеницу	-6466
тарија	-6467
▁поме	-6468
▁компју	-6469
ОВИ	-6470
рских	-6471
▁претходних	-6472
▁замени	-6473
▁поруку	-6474
▁експери	-6475
▁ноге	-6476
▁личност	-6477
▁достојан	-6478
зио	-6479
▁мента	-6480
▁Посебно	-6481
▁групу	-6482
▁желео	-6483
▁контакт	-6484
▁такмичењу	-6485
▁лечење	-6486
▁одређени	-6487
стао	-6488
▁загре	-6489
▁Небој	-6490
▁Стефан	-6491
▁истине	-6492
▁усавр	-6493
▁Јелена	-6494
▁областима	-6495
мског	-6496
▁бројем	-6497
▁добију	-6498
▁овакве	-6499
▁потребу	-6500
▁просторима	-6501
▁поле	-6502
▁предности	-6503
рују	-6504
снији	-6505
▁ослоба	-6506
▁европским	-6507
нге	-6508
▁МИ	-6509
кримина	-6510
▁домаће	-6511
▁Круше	-6512
▁данашње	-6513
рол	-6514
▁брже	-6515
▁спреча	-6516
љко	-6517
▁зага	-6518
▁краљ	-6519
▁дошла	-6520
▁Општине	-6521
▁динами	-6522
говорима	-6523
▁креће	-6524
▁аутори	-6525
▁истичу	-6526
вости	-6527
дре	-6528
▁Опе	-6529
▁мрежи	-6530
▁изразио	-6531
▁помисли	-6532
▁довести	-6533
▁примене	-6534
▁друштвене	-6535
ријског	-6536
▁Ап	-6537
џбе	-6538
▁срећу	-6539
нијом	-6540
ријска	-6541
стичке	-6542
▁Вра	-6543
▁душу	-6544
▁једнако	-6545
▁новинарима	-6546
▁Ер	-6547
гура	-6548
▁иму	-6549
стити	-6550
▁лиге	-6551
▁чуве	-6552
▁убрзо	-6553
нтне	-6554
▁мађа	-6555
▁компоне	-6556
▁капе	-6557
▁линија	-6558
чите	-6559
▁поша	-6560
▁фирма	-6561
▁визу	-6562
▁деведе	-6563
▁ор	-6564
▁порекла	-6565
▁добијају	-6566
мских	-6567
▁образло	-6568
%.	-6569
▁:	-6570
лци	-6571
дери	-6572
▁затвара	-6573
▁Војводини	-6574
▁Француској	-6575
▁досе	-6576
▁састанка	-6577
▁трговине	-6578
▁дозвољено	-6579
лично	-6580
▁Немачка	-6581
▁меча	-6582
лацију	-6583
▁патрио	-6584
▁Њујо	-6585
▁госто	-6586
▁смањење	-6587
ново	-6588
▁кредита	-6589
▁дужности	-6590
▁споменика	-6591
▁фаши	-6592
▁сагледа	-6593
▁следећи	-6594
▁Скупштина	-6595
▁прос	-6596
.[	-6597
▁објекат	-6598
њења	-6599
▁ула	-6600
▁имено	-6601
▁учење	-6602
▁стручњаци	-6603
▁пројекте	-6604
▁Крагујевцу	-6605
сор	-6606
▁нат	-6607
▁Бело	-6608
▁мајке	-6609
▁страх	-6610
▁висини	-6611
▁говора	-6612
▁осваја	-6613
рате	-6614
▁совје	-6615
кони	-6616
▁Јоси	-6617
▁барем	-6618
▁Епископ	-6619
▁главног	-6620
▁изложба	-6621
зних	-6622
љуби	-6623
▁дозволе	-6624
▁временом	-6625
▁Милошевић	-6626
▁милијарде	-6627
▁међународних	-6628
▁Вучића	-6629
▁синдиката	-6630
рур	-6631
дију	-6632
▁већину	-6633
▁зим	-6634
▁признање	-6635
▁стручњака	-6636
▁килогра	-6637
▁Карађорђе	-6638
▁Ваше	-6639
▁завршава	-6640
▁снабде	-6641
▁направио	-6642
шене	-6643
▁субјек	-6644
стио	-6645
навља	-6646
▁рекор	-6647
▁писао	-6648
▁почети	-6649
▁политичким	-6650
от	-6651
▁износу	-6652
сце	-6653
клара	-6654
љивих	-6655
▁блог	-6656
▁муче	-6657
ок	-6658
▁понуде	-6659
▁Рад	-6660
▁улаз	-6661
▁спреман	-6662
▁Ор	-6663
▁ске	-6664
▁теку	-6665
▁чудо	-6666
лектро	-6667
▁унапред	-6668
▁тренер	-6669
нтна	-6670
▁водом	-6671
▁морала	-6672
▁присту	-6673
мрт	-6674
шије	-6675
▁покушај	-6676
▁потписи	-6677
▁Пове	-6678
▁стоје	-6679
▁Швајца	-6680
▁поремећа	-6681
РУ	-6682
▁зате	-6683
▁Север	-6684
▁чишће	-6685
▁фестивал	-6686
ЦИ	-6687
љуб	-6688
▁мал	-6689
▁чин	-6690
▁тала	-6691
▁мра	-6692
▁укида	-6693
▁супрот	-6694
▁договор	-6695
бло	-6696
▁Благо	-6697
▁тргови	-6698
▁средствима	-6699
▁сах	-6700
▁оружа	-6701
▁војску	-6702
▁поштовање	-6703
▁учествовао	-6704
▁крене	-6705
спа	-6706
▁РА	-6707
зова	-6708
▁шпа	-6709
▁празни	-6710
▁сличне	-6711
нгу	-6712
▁Клу	-6713
дара	-6714
мбру	-6715
▁Еги	-6716
▁рачунар	-6717
▁гаса	-6718
дја	-6719
,,	-6720
▁зво	-6721
љивост	-6722
▁вије	-6723
▁опсе	-6724
против	-6725
▁зауста	-6726
▁Мало	-6727
ит	-6728
▁Дави	-6729
▁степен	-6730
▁уређаја	-6731
▁КМ	-6732
Ре	-6733
лик	-6734
▁пило	-6735
▁цари	-6736
▁знали	-6737
▁остваре	-6738
Је	-6739
▁постављање	-6740
▁уторак	-6741
▁вечери	-6742
▁помиње	-6743
▁увијек	-6744
Ме	-6745
зер	-6746
▁станице	-6747
▁писма	-6748
▁препре	-6749
сх	-6750
▁зра	-6751
▁супер	-6752
▁остави	-6753
▁ученике	-6754
▁народне	-6755
▁пронаћи	-6756
▁аутомобил	-6757
▁настала	-6758
дњи	-6759
бели	-6760
▁избега	-6761
пови	-6762
пенди	-6763
▁мог	-6764
љеним	-6765
▁спек	-6766
▁Време	-6767
▁корисницима	-6768
▁независност	-6769
торима	-6770
▁славу	-6771
шом	-6772
јати	-6773
рција	-6774
▁Тиме	-6775
▁инциде	-6776
▁федера	-6777
▁манифестација	-6778
јмо	-6779
▁теже	-6780
▁деч	-6781
▁хле	-6782
▁архе	-6783
црта	-6784
▁храм	-6785
▁морали	-6786
▁Душа	-6787
▁Много	-6788
▁уклања	-6789
▁ваша	-6790
лети	-6791
▁Сти	-6792
штено	-6793
▁управљања	-6794
стор	-6795
▁поузда	-6796
▁обавезно	-6797
▁анализе	-6798
▁омогућити	-6799
▁арти	-6800
▁Трамп	-6801
▁песама	-6802
▁Америке	-6803
▁старих	-6804
▁Јова	-6805
▁учесници	-6806
рети	-6807
▁тхе	-6808
▁режим	-6809
▁овакав	-6810
▁политичку	-6811
тују	-6812
▁домаћих	-6813
дов	-6814
шњо	-6815
биле	-6816
▁тренутак	-6817
▁моно	-6818
▁Треби	-6819
▁представа	-6820
▁моду	-6821
твор	-6822
▁одне	-6823
▁Сматра	-6824
▁Мио	-6825
▁регула	-6826
▁гале	-6827
▁дијалог	-6828
ЈА	-6829
▁Гро	-6830
▁понашања	-6831
▁функција	-6832
пти	-6833
▁пеша	-6834
▁поља	-6835
▁знати	-6836
▁понуди	-6837
МКС	-6838
▁њом	-6839
▁дала	-6840
▁Директор	-6841
▁контакти	-6842
▁преговара	-6843
▁одлично	-6844
▁одуше	-6845
▁црта	-6846
▁превоз	-6847
▁редакције	-6848
▁вест	-6849
▁роман	-6850
▁скупа	-6851
▁Уне	-6852
▁намет	-6853
▁задово	-6854
▁склади	-6855
▁првенство	-6856
▁песма	-6857
▁послије	-6858
▁најважније	-6859
▁важна	-6860
▁истакла	-6861
▁новинаре	-6862
гру	-6863
▁нације	-6864
▁програме	-6865
торе	-6866
тација	-6867
▁изводи	-6868
▁пласти	-6869
▁трошкове	-6870
жну	-6871
логији	-6872
▁отпор	-6873
▁Мир	-6874
▁нер	-6875
ћених	-6876
▁ономе	-6877
▁закључио	-6878
лма	-6879
дују	-6880
▁степени	-6881
▁градовима	-6882
▁запослени	-6883
цање	-6884
▁ефекат	-6885
▁активност	-6886
▁кабине	-6887
▁релативно	-6888
УС	-6889
▁СФ	-6890
сона	-6891
фикације	-6892
▁равнопра	-6893
▁одсе	-6894
▁посу	-6895
осталом	-6896
▁обавести	-6897
шили	-6898
▁такву	-6899
▁саговор	-6900
роватније	-6901
трај	-6902
▁расе	-6903
▁данашњи	-6904
▁Удружење	-6905
▁отварање	-6906
▁МА	-6907
▁МУП	-6908
▁Ирине	-6909
▁Свака	-6910
▁чешће	-6911
▁говорити	-6912
▁присутни	-6913
▁Ну	-6914
▁Шап	-6915
▁филму	-6916
▁Запада	-6917
▁постепе	-6918
врати	-6919
▁користите	-6920
змом	-6921
▁имало	-6922
▁праксе	-6923
вској	-6924
штаја	-6925
▁Хрва	-6926
▁вакци	-6927
▁корупције	-6928
▁ето	-6929
▁најте	-6930
▁претвара	-6931
рд	-6932
зин	-6933
▁саслу	-6934
▁претње	-6935
▁Трену	-6936
▁Цркви	-6937
венција	-6938
▁затвора	-6939
▁Пара	-6940
▁саопштила	-6941
▁бројних	-6942
▁кошарка	-6943
лује	-6944
ченим	-6945
▁Драги	-6946
▁изађе	-6947
▁прину	-6948
▁серија	-6949
▁концерт	-6950
▁нормално	-6951
▁Потре	-6952
▁успеха	-6953
мало	-6954
▁музеја	-6955
▁интернета	-6956
▁Истовремено	-6957
купи	-6958
▁Марти	-6959
▁лекар	-6960
▁терен	-6961
▁капацитета	-6962
▁наду	-6963
форман	-6964
▁Уместо	-6965
мили	-6966
▁радост	-6967
▁ИИИ	-6968
▁одба	-6969
▁робе	-6970
▁Ги	-6971
▁Бел	-6972
▁начине	-6973
▁невлади	-6974
▁јефти	-6975
▁догодило	-6976
▁фирми	-6977
ријских	-6978
▁изградњи	-6979
▁позиције	-6980
▁иницијативу	-6981
▁пче	-6982
▁препу	-6983
тску	-6984
▁Већина	-6985
ћо	-6986
оца	-6987
▁Обре	-6988
▁тесто	-6989
▁одржано	-6990
Ба	-6991
НУМКС	-6992
▁зали	-6993
▁некад	-6994
▁среду	-6995
▁културне	-6996
▁Павле	-6997
индо	-6998
▁фабрике	-6999
▁Нажалост	-7000
▁уџбе	-7001
▁диви	-7002
▁говорили	-7003
▁људске	-7004
▁заменик	-7005
▁странице	-7006
јења	-7007
▁културног	-7008
▁захтевају	-7009
▁Чла	-7010
▁опу	-7011
днике	-7012
▁апара	-7013
вери	-7014
▁повољ	-7015
▁бизнис	-7016
▁Гри	-7017
▁нећу	-7018
▁једва	-7019
▁дугоро	-7020
▁циљева	-7021
▁очекивати	-7022
▁астро	-7023
▁наступи	-7024
▁посебне	-7025
▁дипломати	-7026
тију	-7027
чник	-7028
вском	-7029
▁игри	-7030
▁шансе	-7031
▁колеге	-7032
▁појава	-7033
▁вратити	-7034
▁основни	-7035
жимо	-7036
▁Бије	-7037
▁Кана	-7038
▁млађи	-7039
▁свуда	-7040
▁Захваљујући	-7041
▁телу	-7042
▁списак	-7043
▁заједници	-7044
▁слави	-7045
▁консулта	-7046
▁моз	-7047
▁Кроз	-7048
▁Друга	-7049
▁бодова	-7050
▁заказа	-7051
▁учинио	-7052
▁високог	-7053
▁делимично	-7054
▁њену	-7055
▁литур	-7056
▁закони	-7057
▁Апо	-7058
ђеног	-7059
▁Нада	-7060
▁толе	-7061
▁стога	-7062
Се	-7063
▁Око	-7064
▁СПЦ	-7065
▁амби	-7066
▁радње	-7067
▁црногор	-7068
▁незадовољ	-7069
ИЈА	-7070
▁морам	-7071
▁деведесе	-7072
цоре	-7073
▁Украјини	-7074
▁путовања	-7075
▁америчких	-7076
тенти	-7077
▁освет	-7078
▁неуспе	-7079
вију	-7080
▁Општина	-7081
▁концентра	-7082
▁вери	-7083
▁Серге	-7084
▁верзија	-7085
▁посланици	-7086
МИ	-7087
▁довољ	-7088
▁радне	-7089
▁Аустра	-7090
рића	-7091
▁апликације	-7092
дније	-7093
▁храму	-7094
▁Бриселу	-7095
▁доставља	-7096
гности	-7097
▁средини	-7098
▁међународног	-7099
равају	-7100
▁укључује	-7101
▁обвез	-7102
▁Држава	-7103
▁животиња	-7104
▁Македоније	-7105
▁осет	-7106
▁мјесто	-7107
▁државама	-7108
▁национални	-7109
▁лекова	-7110
▁подручје	-7111
здра	-7112
ИЈЕ	-7113
стог	-7114
вљења	-7115
▁умро	-7116
▁северу	-7117
▁употреби	-7118
▁окружењу	-7119
▁продавни	-7120
▁ас	-7121
зања	-7122
▁Кина	-7123
▁поча	-7124
▁хумани	-7125
▁традиције	-7126
писе	-7127
▁Сом	-7128
▁уништа	-7129
▁Ита	-7130
ђеним	-7131
▁Рома	-7132
▁Његов	-7133
▁догово	-7134
позна	-7135
▁случајно	-7136
МФ	-7137
оу	-7138
киња	-7139
▁неутра	-7140
мп	-7141
▁победа	-7142
▁ниједан	-7143
▁одржавања	-7144
▁замо	-7145
фикација	-7146
▁направити	-7147
ЦЕ	-7148
▁нареди	-7149
▁комуникације	-7150
▁смета	-7151
▁споменик	-7152
▁амбасадор	-7153
▁потребама	-7154
▁век	-7155
▁ићи	-7156
▁блоки	-7157
▁засни	-7158
мбо	-7159
▁двоје	-7160
▁дизајн	-7161
ловића	-7162
▁Партизан	-7163
ЊА	-7164
▁пох	-7165
▁држе	-7166
живања	-7167
▁војних	-7168
рон	-7169
▁преуз	-7170
▁ваздухопло	-7171
▁јутро	-7172
▁понуда	-7173
▁трошкова	-7174
▁Бре	-7175
▁вид	-7176
▁Тади	-7177
▁малим	-7178
▁надам	-7179
кула	-7180
▁ауст	-7181
▁постају	-7182
▁здравствене	-7183
▁предсједника	-7184
чим	-7185
верне	-7186
▁сектору	-7187
чин	-7188
жној	-7189
▁конзе	-7190
▁сликар	-7191
▁пореза	-7192
▁Зему	-7193
▁могле	-7194
ела	-7195
▁Института	-7196
▁врх	-7197
▁Васк	-7198
▁израду	-7199
▁странака	-7200
▁пад	-7201
▁Кини	-7202
зави	-7203
▁увид	-7204
▁обуку	-7205
▁опасности	-7206
▁градоначелник	-7207
огле	-7208
▁попла	-7209
▁тешке	-7210
▁Русијом	-7211
Све	-7212
мар	-7213
▁упут	-7214
▁Леско	-7215
▁стандарда	-7216
▁непријатеља	-7217
▁фло	-7218
женог	-7219
▁немам	-7220
▁данима	-7221
▁карактер	-7222
уче	-7223
▁раско	-7224
▁целом	-7225
▁уметност	-7226
▁тежа	-7227
▁Зрења	-7228
▁транзи	-7229
▁Италији	-7230
▁Милорад	-7231
▁Пробле	-7232
▁издвоји	-7233
рес	-7234
крет	-7235
▁екра	-7236
▁никакву	-7237
▁привреме	-7238
ПА	-7239
▁поро	-7240
гент	-7241
▁Колу	-7242
▁документ	-7243
зивања	-7244
▁очекују	-7245
▁СПС	-7246
▁структура	-7247
▁кандидат	-7248
ина	-7249
▁будем	-7250
▁фри	-7251
▁медије	-7252
▁члановима	-7253
.“	-7254
▁Оне	-7255
▁жељу	-7256
вајања	-7257
јица	-7258
чених	-7259
▁аван	-7260
▁пословне	-7261
мај	-7262
▁весе	-7263
▁сачи	-7264
▁серије	-7265
▁немачки	-7266
▁Члан	-7267
▁исхо	-7268
▁мудро	-7269
▁главна	-7270
▁опција	-7271
▁уља	-7272
▁приву	-7273
▁Нове	-7274
▁најмла	-7275
▁становништво	-7276
блу	-7277
▁лага	-7278
▁прим	-7279
▁Совје	-7280
▁вашем	-7281
▁водио	-7282
▁одрасли	-7283
▁ужа	-7284
прије	-7285
лм	-7286
вате	-7287
ствен	-7288
▁контине	-7289
▁технике	-7290
▁положаја	-7291
▁контексту	-7292
▁корисници	-7293
▁импе	-7294
▁Ивана	-7295
▁забрањено	-7296
▁анд	-7297
▁разговору	-7298
▁овоме	-7299
▁законода	-7300
▁пишу	-7301
▁Руски	-7302
▁породицу	-7303
▁Епар	-7304
▁децом	-7305
▁кампање	-7306
▁Тома	-7307
▁туризма	-7308
▁идентитета	-7309
Пе	-7310
▁крв	-7311
рском	-7312
▁брата	-7313
листичке	-7314
▁ваздуха	-7315
▁вечерас	-7316
▁повреде	-7317
▁лежи	-7318
▁карте	-7319
▁енглески	-7320
▁локалним	-7321
▁потврдио	-7322
тје	-7323
▁Здра	-7324
▁рецеп	-7325
▁инвестиције	-7326
мане	-7327
▁резер	-7328
Те	-7329
љеног	-7330
▁Младе	-7331
▁Прија	-7332
▁народни	-7333
▁притиска	-7334
шковић	-7335
▁Црвене	-7336
минира	-7337
▁серти	-7338
зисте	-7339
▁пуца	-7340
јл	-7341
зити	-7342
грађа	-7343
▁атра	-7344
▁првим	-7345
▁сусрета	-7346
ризо	-7347
▁првенствено	-7348
▁почело	-7349
▁ватре	-7350
▁компро	-7351
▁количине	-7352
▁уочи	-7353
▁студентима	-7354
Ру	-7355
▁Библиоте	-7356
▁формирање	-7357
▁дискримина	-7358
зара	-7359
▁Буди	-7360
▁боре	-7361
▁мотор	-7362
▁учења	-7363
▁просле	-7364
▁признања	-7365
▁Богородице	-7366
▁срб	-7367
▁акреди	-7368
▁перформан	-7369
▁оптими	-7370
▁Поводом	-7371
▁Резулта	-7372
▁постојање	-7373
▁докумената	-7374
ир	-7375
бови	-7376
воро	-7377
туру	-7378
▁лик	-7379
▁унапређење	-7380
▁запошљавање	-7381
▁независности	-7382
пор	-7383
▁узрок	-7384
▁Мали	-7385
▁читаоци	-7386
▁Сарајево	-7387
▁научно	-7388
ИВ	-7389
▁првоби	-7390
▁управа	-7391
▁посебним	-7392
рим	-7393
ваће	-7394
јала	-7395
▁Оби	-7396
сављевић	-7397
▁омладине	-7398
уди	-7399
▁пља	-7400
љивости	-7401
▁посвећен	-7402
▁скупштини	-7403
лера	-7404
▁часа	-7405
▁личне	-7406
▁западне	-7407
▁њиховој	-7408
▁образовању	-7409
иста	-7410
▁повећава	-7411
▁семина	-7412
▁Фести	-7413
▁крајње	-7414
▁религи	-7415
кер	-7416
међу	-7417
▁уметника	-7418
▁сервис	-7419
▁заробље	-7420
▁бића	-7421
▁рођења	-7422
▁освојила	-7423
▁суге	-7424
▁анализа	-7425
▁поу	-7426
▁нара	-7427
▁већине	-7428
▁тражио	-7429
▁улазак	-7430
▁празника	-7431
▁функционише	-7432
чла	-7433
▁ЈЕ	-7434
▁криза	-7435
▁ПД	-7436
јере	-7437
▁такви	-7438
▁примену	-7439
лон	-7440
▁Шума	-7441
▁такво	-7442
▁измене	-7443
▁седиште	-7444
▁напредак	-7445
▁повратак	-7446
▁подсетио	-7447
▁спровођење	-7448
вено	-7449
граду	-7450
▁поха	-7451
▁релева	-7452
▁друштвених	-7453
▁круг	-7454
▁брине	-7455
▁ћеш	-7456
▁већини	-7457
▁стипенди	-7458
▁постављен	-7459
рки	-7460
▁најма	-7461
▁писања	-7462
▁међусобно	-7463
▁опозиције	-7464
тури	-7465
▁смр	-7466
разум	-7467
▁часописа	-7468
тику	-7469
нкова	-7470
▁светом	-7471
▁циља	-7472
▁донети	-7473
▁филмова	-7474
▁реализацију	-7475
▁Вуко	-7476
▁увећа	-7477
▁Драгана	-7478
▁мандата	-7479
▁државним	-7480
фанзи	-7481
лског	-7482
▁чланице	-7483
▁човечан	-7484
ври	-7485
▁прође	-7486
▁сврхе	-7487
▁среће	-7488
▁појаву	-7489
▁публици	-7490
▁Жу	-7491
▁дипломира	-7492
▁хек	-7493
тељима	-7494
▁Амбаса	-7495
▁финансијске	-7496
РЈ	-7497
▁истоку	-7498
сигу	-7499
▁уга	-7500
▁следи	-7501
▁слобода	-7502
▁Так	-7503
▁род	-7504
▁интели	-7505
љују	-7506
▁Еуро	-7507
▁Краји	-7508
чат	-7509
▁ризик	-7510
▁категорији	-7511
▁пето	-7512
▁прикљу	-7513
▁регистро	-7514
давно	-7515
парати	-7516
▁Дејан	-7517
▁Холан	-7518
▁обиље	-7519
▁портал	-7520
▁затвори	-7521
▁инвестиција	-7522
▁ваљда	-7523
▁Народна	-7524
▁новине	-7525
▁величине	-7526
▁говоримо	-7527
▁функционал	-7528
▁коментарима	-7529
▁бер	-7530
▁крва	-7531
▁упита	-7532
▁решавање	-7533
▁универза	-7534
▁Јеруса	-7535
▁верују	-7536
▁заступа	-7537
▁наглашава	-7538
▁резултатима	-7539
%,	-7540
клапа	-7541
▁дешавања	-7542
▁преговора	-7543
▁структуре	-7544
митрије	-7545
▁протеклих	-7546
КП	-7547
Та	-7548
европ	-7549
▁таквог	-7550
хова	-7551
▁минуту	-7552
▁благосло	-7553
▁Била	-7554
▁оконча	-7555
▁протеста	-7556
тети	-7557
▁Два	-7558
▁Илић	-7559
▁спор	-7560
▁похва	-7561
▁живимо	-7562
▁музику	-7563
▁важе	-7564
▁ступа	-7565
▁Николе	-7566
▁издање	-7567
▁урадио	-7568
▁податак	-7569
кват	-7570
▁помага	-7571
▁интерна	-7572
▁ослобађа	-7573
▁радионице	-7574
▁манипу	-7575
▁чланове	-7576
▁Херцеговини	-7577
годишња	-7578
▁страници	-7579
пулар	-7580
▁направили	-7581
зила	-7582
▁отворио	-7583
шак	-7584
▁учешћа	-7585
▁непреста	-7586
МС	-7587
▁волим	-7588
▁служе	-7589
БИ	-7590
нза	-7591
бром	-7592
мс	-7593
▁проуча	-7594
▁органима	-7595
▁идентитет	-7596
изво	-7597
манти	-7598
▁играч	-7599
▁плата	-7600
▁своме	-7601
▁Тим	-7602
▁прекида	-7603
цент	-7604
▁Пер	-7605
▁ими	-7606
ваним	-7607
▁Обја	-7608
▁брен	-7609
▁ратне	-7610
▁бројним	-7611
▁смањује	-7612
▁Џон	-7613
▁улицама	-7614
▁предлаже	-7615
вковић	-7616
▁пораз	-7617
▁преми	-7618
▁Стефана	-7619
▁кретања	-7620
▁комерција	-7621
▁појави	-7622
▁издваја	-7623
▁БИ	-7624
▁импле	-7625
▁фантасти	-7626
▁тип	-7627
▁крст	-7628
▁југу	-7629
▁Пројекат	-7630
▁капитала	-7631
мисле	-7632
▁човје	-7633
▁победи	-7634
▁преузети	-7635
▁међународни	-7636
▁валу	-7637
▁уље	-7638
▁мага	-7639
▁грешке	-7640
▁Италије	-7641
▁изгубио	-7642
▁историјски	-7643
▁цм	-7644
▁мече	-7645
▁	-7646
а	-7647
и	-7648
о	-7649
е	-7650
н	-7651
р	-7652
с	-7653
т	-7654
у	-7655
д	-7656
в	-7657
к	-7658
м	-7659
ј	-7660
п	-7661
л	-7662
з	-7663
г	-7664
б	-7665
,	-7666
.	-7667
ц	-7668
ш	-7669
ч	-7670
њ	-7671
ћ	-7672
х	-7673
ж	-7674
љ	-7675
С	-7676
ф	-7677
П	-7678
0	-7679
ђ	-7680
1	-7681
Н	-7682
М	-7683
А	-7684
К	-7685
Б	-7686
О	-7687
Д	-7688
И	-7689
2	-7690
Т	-7691
У	-7692
В	-7693
Р	-7694
-	-7695
"	-7696
Е	-7697
)	-7698
(	-7699
Г	-7700
З	-7701
Ј	-7702
9	-7703
“	-7704
„	-7705
5	-7706
3	-7707
:	-7708
Ц	-7709
Х	-7710
4	-7711
Л	-7712
8	-7713
6	-7714
7	-7715
Ф	-7716
–	-7717
Ш	-7718
Ч	-7719
џ	-7720
”	-7721
?	-7722
/	-7723
;	-7724
'	-7725
Ж	-7726
Њ	-7727
y	-7728
­	-7729
Ђ	-7730
w	-7731
!	-7732
Љ	-7733
%	-7734
W	-7735
—	-7736
X	-7737
]	-7738
[	-7739
Џ	-7740
